<unk>	0
,	-3.16883
.	-3.65998
▁	-4.58078
▁và	-4.67748
▁của	-4.74365
▁có	-4.84134
ng	-4.97869
▁các	-5.01617
▁cho	-5.05355
▁là	-5.07258
▁không	-5.16222
▁được	-5.16339
▁đã	-5.18319
▁người	-5.25037
▁với	-5.27465
▁trong	-5.30664
▁một	-5.5047
▁công	-5.51793
▁để	-5.5609
▁(	-5.68333
▁khi	-5.69434
▁về	-5.70126
▁này	-5.71929
▁từ	-5.72104
▁tại	-5.73099
▁đến	-5.73458
▁đồng	-5.74862
▁những	-5.76669
▁năm	-5.77114
▁việc	-5.77599
▁định	-5.79141
)	-5.80914
▁bị	-5.81693
n	-5.82828
▁ra	-5.83699
:	-5.84567
i	-5.86796
▁trên	-5.86815
▁đó	-5.88478
▁làm	-5.90446
▁nhà	-5.91954
▁hiện	-5.9293
▁ở	-5.96587
▁đầu	-5.9674
▁số	-5.97994
▁ông	-5.98804
▁T	-6.00925
▁ngày	-6.02288
▁nhiều	-6.02529
▁thể	-6.05314
▁vào	-6.05328
▁lại	-6.05767
▁động	-6.09625
▁như	-6.10851
▁phải	-6.13208
▁hàng	-6.14426
▁quan	-6.14623
▁nhân	-6.16396
▁-	-6.16714
▁N	-6.18812
▁hành	-6.19533
▁án	-6.19672
▁sẽ	-6.20264
▁dân	-6.20791
▁chỉ	-6.20986
ất	-6.21843
▁chính	-6.22093
▁gia	-6.22491
▁thành	-6.23214
▁vụ	-6.23437
▁sự	-6.2415
▁sản	-6.24621
▁giá	-6.25095
▁nước	-6.25607
▁thông	-6.26137
m	-6.2614
▁lý	-6.26177
▁thì	-6.26343
▁t	-6.26579
▁hợp	-6.26605
▁C	-6.27335
▁xe	-6.27643
▁theo	-6.27834
▁Nam	-6.2925
▁cơ	-6.29319
▁c	-6.3097
▁tư	-6.32353
▁cũ	-6.32812
▁biết	-6.32828
▁thu	-6.34317
▁thực	-6.34497
▁trường	-6.34504
▁nhận	-6.34738
▁con	-6.36382
▁còn	-6.37399
▁đất	-6.39861
▁tôi	-6.40239
▁Công	-6.40383
▁Đ	-6.40726
▁Việt	-6.4158
▁điều	-6.41611
▁tỉnh	-6.41893
t	-6.42554
▁tiền	-6.43054
▁thời	-6.43206
;	-6.43756
▁hơn	-6.44274
▁dụng	-6.44535
▁mà	-6.44893
▁nhưng	-6.44909
▁tra	-6.45046
▁đi	-6.4579
y	-6.47556
▁chức	-6.47579
▁xã	-6.48548
▁đường	-6.50831
▁sau	-6.5106
▁quy	-6.51871
▁đối	-6.52042
▁n	-6.54034
▁qua	-6.56164
▁mới	-6.57212
▁tổ	-6.5729
▁anh	-6.57737
▁phát	-6.57949
▁đ	-6.59355
g	-6.59401
▁nên	-6.59969
▁tài	-6.61563
▁bộ	-6.6183
▁TP	-6.62248
▁hình	-6.62833
▁trình	-6.63454
▁an	-6.63584
▁cấp	-6.63621
▁nghiệp	-6.63873
▁mình	-6.64196
▁doanh	-6.64358
▁r	-6.64481
▁chủ	-6.6553
▁viên	-6.66987
▁b	-6.67406
▁cùng	-6.67504
▁xuất	-6.68357
▁báo	-6.68684
▁tiếp	-6.70286
▁dự	-6.70581
▁giao	-6.7075
▁cầu	-6.70791
▁do	-6.7144
▁quyết	-6.71553
▁Nguyễn	-6.72192
▁kinh	-6.72533
▁cao	-6.72814
▁cả	-6.73069
▁nhất	-6.7331
▁đa	-6.73633
▁phương	-6.74038
▁pháp	-6.74186
▁2	-6.7457
▁địa	-6.74691
▁tình	-6.74791
▁trước	-6.75028
▁tế	-6.7541
▁bán	-6.76178
▁sinh	-6.76577
▁huyện	-6.77431
▁học	-6.77514
▁vì	-6.77725
▁"	-6.77765
▁hội	-6.77806
▁đây	-6.78486
▁Theo	-6.7852
▁giải	-6.7875
▁Bộ	-6.79729
▁ty	-6.79993
▁tin	-6.80016
▁quyền	-6.80189
▁đề	-6.8023
▁vẫn	-6.80351
▁bà	-6.80404
ũng	-6.80979
▁kết	-6.80996
▁dựng	-6.81058
▁Hà	-6.81075
ây	-6.81094
▁bảo	-6.81806
▁1	-6.81942
▁B	-6.82244
▁phần	-6.82692
▁m	-6.83263
▁nói	-6.83527
▁thế	-6.83632
-	-6.8378
▁khoản	-6.84571
▁tháng	-6.848
▁điểm	-6.85102
▁vi	-6.85542
▁khác	-6.86709
▁lên	-6.86821
▁phạm	-6.8696
▁khai	-6.86989
▁xây	-6.87195
▁nay	-6.88228
▁sử	-6.88525
▁tác	-6.8865
▁lượng	-6.89119
▁UBND	-6.89451
▁bạn	-6.90485
▁thị	-6.90584
▁chưa	-6.91087
▁tăng	-6.9157
▁sở	-6.93621
▁khu	-6.93819
▁triển	-6.94036
▁xử	-6.94206
▁bản	-6.94569
▁cáo	-6.9546
▁yêu	-6.95877
▁triệu	-6.96296
▁tục	-6.96417
u	-6.96783
▁V	-6.96976
▁lực	-6.97542
▁Văn	-6.97777
▁tỷ	-6.98616
▁quả	-6.98696
▁đạo	-6.99055
▁năng	-6.99551
▁toàn	-7.00132
▁3	-7.0052
▁tâm	-7.00839
▁cô	-7.01516
▁gian	-7.0165
▁cách	-7.01668
▁mua	-7.01864
▁đơn	-7.02147
▁nhiên	-7.02325
▁tự	-7.02405
▁liên	-7.02788
▁ý	-7.03018
▁giảm	-7.03087
▁đình	-7.04156
▁tới	-7.0477
▁luật	-7.05669
▁quá	-7.06134
o	-7.06389
▁mặt	-7.06597
▁phí	-7.07186
▁chuyển	-7.07533
▁Quốc	-7.07987
▁tạo	-7.08043
▁hai	-7.08108
▁g	-7.08281
▁cần	-7.08329
"	-7.09402
▁M	-7.10008
▁thường	-7.10655
▁Trung	-7.11162
ếu	-7.1219
▁em	-7.12365
▁vị	-7.12505
▁Bình	-7.13347
▁thương	-7.13992
▁Trong	-7.14104
ương	-7.14185
▁rằng	-7.14251
c	-7.1438
/	-7.14412
▁hoạt	-7.15005
▁kiểm	-7.15007
▁thấy	-7.15041
▁chị	-7.15216
▁diện	-7.15801
▁đưa	-7.16026
▁thức	-7.16427
▁tuổi	-7.16545
▁Anh	-7.16968
▁lớn	-7.17278
▁nào	-7.17356
▁chứng	-7.17488
▁trưởng	-7.17614
▁hộ	-7.17629
▁khách	-7.18026
▁bằng	-7.18873
▁Thanh	-7.19159
▁sống	-7.19451
▁thủ	-7.20084
▁hiệu	-7.20218
▁hóa	-7.2069
▁tiêu	-7.20766
▁phẩm	-7.20941
▁tượng	-7.20996
▁bàn	-7.21476
▁kiến	-7.22052
▁gần	-7.22089
ặc	-7.22741
▁họ	-7.23239
▁quận	-7.23434
▁lần	-7.24263
▁đổi	-7.24554
▁hay	-7.24709
▁phòng	-7.24764
▁hoàn	-7.2595
▁chồng	-7.26199
▁vực	-7.26419
▁máy	-7.26709
▁ăn	-7.26872
▁tích	-7.28186
▁ảnh	-7.28274
▁cuộc	-7.29301
▁nghị	-7.29631
▁bắt	-7.30172
▁văn	-7.30343
▁quản	-7.30402
▁Thị	-7.30403
▁điện	-7.30537
▁Tuy	-7.30644
▁giờ	-7.30783
▁quốc	-7.3104
▁lợi	-7.31319
▁nhiệm	-7.31618
▁giữ	-7.31772
▁d	-7.31847
▁sát	-7.31935
▁chất	-7.32297
▁tịch	-7.32554
▁chế	-7.32607
▁cá	-7.3311
▁An	-7.33392
▁độ	-7.334
▁vậy	-7.33705
h	-7.34008
▁trạm	-7.34095
▁phố	-7.34515
▁vợ	-7.34668
▁thi	-7.34787
▁trị	-7.34999
▁ho	-7.35276
▁tham	-7.35322
▁chúng	-7.35515
▁nhau	-7.35856
▁khó	-7.36137
?	-7.36444
▁đại	-7.36751
▁thống	-7.36838
▁Cần	-7.36848
▁tập	-7.36855
▁nhập	-7.37107
▁nguyên	-7.37224
▁dịch	-7.37416
▁Thơ	-7.3749
▁thanh	-7.37864
▁tính	-7.37875
▁mẹ	-7.3794
▁mức	-7.3872
▁ch	-7.39346
▁bố	-7.39825
▁rồi	-7.40284
▁Sau	-7.40996
▁Tết	-7.41031
▁lập	-7.41253
▁Nội	-7.41275
▁trẻ	-7.41284
▁gì	-7.41363
▁H	-7.41421
...	-7.41729
▁lời	-7.41944
▁ký	-7.4222
▁vừa	-7.42228
▁cảnh	-7.42886
▁biệt	-7.4293
▁giới	-7.43245
▁đánh	-7.43366
▁thuộc	-7.43406
▁xác	-7.43418
▁hệ	-7.4349
▁'	-7.43675
a	-7.44373
▁trở	-7.44611
▁S	-7.45036
▁trọng	-7.45332
▁hoạch	-7.45584
▁ta	-7.45851
▁sách	-7.46281
▁mạnh	-7.46292
▁cảm	-7.47431
▁đều	-7.4763
▁Tổ	-7.47802
ỗi	-7.47846
▁4	-7.47913
▁kiện	-7.48384
▁5	-7.4843
ôi	-7.48542
▁cổ	-7.48793
▁vốn	-7.49058
▁Chính	-7.49143
▁Ng	-7.49206
▁nữ	-7.49325
▁Đồng	-7.49378
▁sơ	-7.49796
▁tay	-7.49798
▁vấn	-7.50132
▁Ông	-7.50204
ang	-7.50321
▁hồ	-7.50623
▁tốt	-7.50718
▁trả	-7.50832
▁hết	-7.50902
▁ngoài	-7.50916
▁phụ	-7.51246
▁rõ	-7.51528
▁xét	-7.51566
▁BOT	-7.51909
▁loại	-7.51962
▁phủ	-7.52313
▁chi	-7.53184
▁bệnh	-7.53401
▁mang	-7.53466
▁Long	-7.54646
▁muốn	-7.55279
▁đấu	-7.55336
▁dùng	-7.56062
▁Thành	-7.5612
▁chí	-7.56589
▁bao	-7.56693
▁s	-7.56867
▁tên	-7.57738
▁ban	-7.57924
▁minh	-7.57982
▁trung	-7.58345
▁phường	-7.59317
▁diễn	-7.5944
▁bỏ	-7.59557
▁đặc	-7.59816
▁dẫn	-7.60238
▁Minh	-7.60279
p	-7.60364
).	-7.60467
▁đoàn	-7.60645
'	-7.60683
▁sáng	-7.60725
▁giữa	-7.60838
▁xả	-7.61127
▁vận	-7.61539
▁U	-7.61854
▁thân	-7.62034
▁trợ	-7.62263
▁nơi	-7.62311
▁đảm	-7.62659
▁Sở	-7.63087
▁10	-7.63449
▁hướng	-7.63481
▁Các	-7.63655
▁2017	-7.63678
▁Mỹ	-7.6392
▁đủ	-7.64077
▁Ninh	-7.64411
▁L	-7.64798
▁tiến	-7.65222
▁hạn	-7.65298
▁Giang	-7.65502
▁thêm	-7.65503
▁chiến	-7.65784
▁lúc	-7.65916
▁Phó	-7.65981
▁chung	-7.66072
▁chia	-7.66105
▁Ch	-7.66159
▁bên	-7.66374
▁giúp	-7.66747
hủ	-7.67124
▁Nhà	-7.67289
▁Tân	-7.67553
▁thẩm	-7.67629
▁chuyện	-7.67739
▁kh	-7.6774
▁hưởng	-7.6776
▁nghệ	-7.68058
▁tố	-7.68834
▁Trần	-7.68914
▁vệ	-7.68935
nh	-7.68943
▁liệu	-7.69317
▁phục	-7.69511
▁sĩ	-7.69723
▁nguồn	-7.69742
▁kế	-7.69981
▁xem	-7.70225
▁tr	-7.70595
▁ứng	-7.70839
▁lịch	-7.71061
▁đúng	-7.71128
▁thuế	-7.71137
▁thiết	-7.71147
▁lãnh	-7.71491
▁Lê	-7.7154
▁đời	-7.71673
▁nạn	-7.71762
▁ấy	-7.7177
▁cây	-7.71995
▁trạng	-7.72017
▁Tr	-7.72026
▁đạt	-7.72466
▁chấp	-7.72472
▁ngành	-7.72527
▁nội	-7.7254
▁trái	-7.72563
▁sức	-7.72913
▁sao	-7.73363
▁trang	-7.73494
▁lấy	-7.73777
▁thay	-7.73922
▁phạt	-7.74638
▁l	-7.74683
▁luận	-7.75113
▁gái	-7.75135
▁Hải	-7.75184
▁hoa	-7.75323
▁k	-7.75606
▁biến	-7.75882
▁căn	-7.76065
▁dài	-7.76138
▁v	-7.76369
▁hồi	-7.76513
▁tội	-7.76567
▁đoạn	-7.76623
▁lộ	-7.77014
▁vật	-7.77462
▁bình	-7.77521
▁ng	-7.77851
▁giấy	-7.78366
▁giáo	-7.78409
▁mạng	-7.78448
▁truyền	-7.78861
▁giả	-7.7889
▁đội	-7.79577
▁phép	-7.79781
▁cố	-7.80189
▁Phú	-7.80259
▁hỏi	-7.80368
▁khăn	-7.80449
▁khiế	-7.80577
▁trách	-7.80786
▁chuyên	-7.80798
▁kỳ	-7.81202
▁ngay	-7.8131
▁Dương	-7.81804
▁nông	-7.82014
▁so	-7.82211
▁trí	-7.82227
▁khí	-7.82416
▁mất	-7.82438
▁thứ	-7.83061
▁Sơn	-7.83722
ến	-7.84261
▁tiện	-7.84494
▁đặt	-7.85218
▁cán	-7.8532
▁cứu	-7.85321
Quảng	-7.85704
▁đăng	-7.85845
▁Ban	-7.85872
▁cái	-7.85923
▁Ảnh	-7.8607
▁nhỏ	-7.86209
▁Trường	-7.8625
▁tải	-7.86462
▁tiếng	-7.86631
▁Khi	-7.8671
▁tử	-7.86793
▁lao	-7.86855
▁6	-7.87289
▁trực	-7.87791
▁vùng	-7.87841
▁mọ	-7.88387
▁Đức	-7.88387
▁danh	-7.89444
▁hỗ	-7.89689
▁kể	-7.89981
▁Xuân	-7.90388
▁cứ	-7.90521
▁hữu	-7.90908
▁đàn	-7.91154
▁du	-7.91164
▁mục	-7.91575
ại	-7.91838
▁tranh	-7.91995
▁luôn	-7.92026
▁Hồ	-7.92113
▁Điều	-7.9215
▁Hòa	-7.92613
▁tiên	-7.92881
▁đẹp	-7.93079
▁Hội	-7.93103
▁nữa	-7.93295
▁Trước	-7.93734
▁xin	-7.93803
▁cư	-7.9387
▁mở	-7.94112
▁chiếc	-7.94218
▁Hoàng	-7.94261
▁Đông	-7.94286
▁Một	-7.94298
▁ô	-7.94536
▁tòa	-7.94763
▁tiết	-7.94985
▁Từ	-7.95024
▁Hiệp	-7.95309
▁gặp	-7.95311
▁Thủ	-7.95465
▁hạ	-7.95659
▁toán	-7.95945
▁đốc	-7.95964
▁thuật	-7.95994
▁dù	-7.96372
▁nuôi	-7.96459
▁cạnh	-7.96463
▁lòng	-7.96528
▁Không	-7.96557
▁phả	-7.96667
▁kê	-7.96696
▁D	-7.9678
HCM	-7.97254
▁câu	-7.97303
▁phía	-7.97314
▁chạy	-7.97619
▁phân	-7.97675
▁xuống	-7.98154
▁áp	-7.98644
▁khẩu	-7.9873
▁thưởng	-7.98807
▁lưu	-7.99309
▁góp	-7.99325
23	-7.99518
▁sẻ	-7.99879
▁chuẩn	-7.99904
▁vô	-8.00802
▁xúc	-8.01067
▁cuối	-8.0114
▁gồm	-8.01167
hẳng	-8.01281
▁ai	-8.01389
▁tất	-8.0181
▁thuận	-8.01866
▁nh	-8.02092
ông	-8.02258
▁chịu	-8.02605
▁quân	-8.0292
▁giám	-8.02956
ới	-8.0309
gười	-8.03515
▁khởi	-8.04115
▁thích	-8.04134
▁hại	-8.04615
▁X	-8.04629
▁chọn	-8.04733
▁di	-8.05023
▁tuyến	-8.05411
▁trồng	-8.0542
▁ủy	-8.05531
▁sai	-8.05534
ìm	-8.05985
▁viện	-8.06137
▁ghi	-8.06213
▁bóng	-8.06714
ận	-8.06721
▁th	-8.07063
▁gọi	-8.07382
▁khá	-8.07966
▁đô	-8.08299
▁biển	-8.09129
▁sân	-8.09251
▁Th	-8.09425
▁K	-8.09507
▁tô	-8.09558
▁12	-8.09659
▁yếu	-8.09769
▁buổi	-8.10417
▁Ngọc	-8.10417
▁dung	-8.10534
▁cung	-8.10607
▁Đại	-8.1071
▁sư	-8.11127
▁Bắc	-8.11128
▁tướng	-8.11129
▁nổi	-8.11261
▁chiều	-8.1146
▁tặng	-8.11755
▁phiên	-8.11777
▁rộng	-8.11784
▁Gia	-8.12058
ổng	-8.12224
▁thư	-8.12374
▁nghiệm	-8.12385
▁mắt	-8.12457
▁cộng	-8.12511
▁nó	-8.12648
▁7	-8.12909
▁gửi	-8.13039
▁Luậ	-8.13091
▁Đảng	-8.13112
▁dưới	-8.13131
▁GTVT	-8.13151
▁nhanh	-8.13153
▁đáng	-8.1318
▁.	-8.13279
▁Nhưng	-8.13504
▁đóng	-8.13997
▁2018	-8.14011
ân	-8.14299
▁nghiêm	-8.14396
▁bé	-8.1442
▁Yên	-8.14491
▁mô	-8.14616
▁nhóm	-8.1507
▁vay	-8.15183
▁vé	-8.15432
▁lệ	-8.15719
ể	-8.1578
ên	-8.15852
▁nghĩa	-8.15852
▁x	-8.15971
ắp	-8.16057
▁thôn	-8.16081
▁hiểu	-8.16198
inh	-8.16405
▁môi	-8.16413
▁cụ	-8.16594
▁phối	-8.16631
▁Tài	-8.16634
▁xế	-8.17069
▁đá	-8.17329
▁lo	-8.17572
▁sang	-8.17614
▁Nhữ	-8.17806
▁Lâm	-8.18003
▁bài	-8.18062
▁chân	-8.18264
▁cải	-8.18385
▁cửa	-8.19352
▁thật	-8.20105
".	-8.20262
▁trai	-8.20749
▁chống	-8.20796
▁phá	-8.21134
▁ca	-8.21345
▁đứng	-8.21732
▁Tiến	-8.22121
2	-8.22197
▁trú	-8.22297
▁Nhật	-8.22316
hiều	-8.22622
▁riêng	-8.22919
▁Nga	-8.2313
▁soát	-8.23616
▁suất	-8.23643
▁ba	-8.23706
▁thiếu	-8.23901
▁20	-8.24332
▁nghèo	-8.24351
▁Phòng	-8.24354
âu	-8.245
▁tấn	-8.2467
▁Trăng	-8.25145
▁tù	-8.2528
▁càng	-8.25761
▁phúc	-8.25897
▁biểu	-8.25922
▁Có	-8.26313
▁Do	-8.26438
▁tinh	-8.26552
▁USD	-8.26666
▁nhìn	-8.26684
▁quà	-8.2678
▁đồ	-8.26886
▁Quang	-8.27093
▁tầng	-8.27442
▁đông	-8.27508
▁Bà	-8.27621
▁chương	-8.28009
▁Chi	-8.28301
▁khả	-8.28486
▁khỏi	-8.28962
▁niên	-8.29189
▁đào	-8.29243
▁thiện	-8.29355
ao	-8.29411
▁cục	-8.29499
▁kéo	-8.29737
▁Phương	-8.29855
▁chiếm	-8.29897
▁Tây	-8.30088
▁Vân	-8.30105
▁tối	-8.30254
▁A	-8.30749
▁ít	-8.30835
▁8	-8.31013
▁Chí	-8.31038
▁bổ	-8.31042
▁lĩnh	-8.31335
▁dục	-8.31472
▁tờ	-8.31988
▁Nguyên	-8.32172
▁nợ	-8.32287
▁Dự	-8.32379
▁chợ	-8.3252
▁ngờ	-8.3286
▁hôn	-8.32871
▁bay	-8.33353
T	-8.33473
▁Giám	-8.33915
▁tắc	-8.33963
▁tuyên	-8.34021
▁nghĩ	-8.34465
▁chơi	-8.34689
▁xa	-8.34724
▁Thái	-8.34759
▁tín	-8.35376
▁ph	-8.35402
▁kỹ	-8.35439
▁đầy	-8.35472
▁sắc	-8.35498
▁cực	-8.35617
▁30	-8.35761
▁ngâ	-8.36
▁Châu	-8.36409
▁bức	-8.36444
▁họp	-8.36503
▁tỉ	-8.36858
▁mẫu	-8.37162
▁thuê	-8.38071
▁Liên	-8.38099
▁Hồng	-8.38249
▁tai	-8.38771
▁R	-8.38796
▁miễn	-8.38864
▁chỉnh	-8.38925
▁lâu	-8.38935
▁Dũng	-8.39052
▁tàu	-8.39731
▁nâ	-8.39753
▁ngoại	-8.39779
▁thần	-8.39934
▁nằm	-8.3997
▁Thông	-8.40088
▁Vũ	-8.40181
ầu	-8.40585
▁vui	-8.40593
▁phong	-8.40666
▁thác	-8.4067
▁chỗ	-8.40675
▁Hiện	-8.40769
▁chú	-8.41057
▁Và	-8.41506
▁bở	-8.42299
▁dễ	-8.42346
▁lễ	-8.42348
▁Thế	-8.4247
áo	-8.4268
▁Só	-8.42752
▁Chỉ	-8.43195
▁tuyển	-8.43299
▁truy	-8.43374
▁hút	-8.43436
▁chết	-8.44169
▁nghe	-8.44195
▁thừa	-8.44197
▁đâu	-8.44476
&	-8.44482
▁Cục	-8.44506
▁tạm	-8.44663
▁thoại	-8.45125
▁trấn	-8.45156
▁Hưng	-8.45177
ề	-8.45179
▁biên	-8.45291
▁chờ	-8.45327
▁2016	-8.45518
▁Phạ	-8.45956
▁nhớ	-8.46017
▁hiểm	-8.46041
▁phê	-8.46064
gày	-8.46404
▁9	-8.4645
▁độc	-8.46638
iềm	-8.46825
N	-8.46828
▁miền	-8.46987
▁vọng	-8.47008
▁tránh	-8.47023
▁phút	-8.47041
▁hậu	-8.47055
▁trò	-8.47236
ong	-8.47257
▁hôm	-8.47321
▁khỏe	-8.4788
▁Vì	-8.48114
▁Đà	-8.48187
ành	-8.48604
▁sớm	-8.48829
▁kỷ	-8.4884
▁Hùng	-8.48932
▁phù	-8.48939
goài	-8.4993
s	-8.50348
▁gắn	-8.50646
▁TAND	-8.50743
!	-8.50768
▁thuốc	-8.50883
▁dừng	-8.50903
▁tưởng	-8.51037
▁đôi	-8.51131
▁Như	-8.51177
▁mại	-8.51299
▁đẩy	-8.51773
▁quý	-8.51796
▁đảo	-8.51859
ủ	-8.52188
▁Phụng	-8.52204
▁trụ	-8.52217
▁Mai	-8.52296
▁Cụ	-8.52649
▁Tuấn	-8.5275
▁Linh	-8.52879
▁phóng	-8.53073
▁sông	-8.53314
▁phim	-8.53821
▁18	-8.53923
▁tuần	-8.54001
▁nguy	-8.54168
▁Hạ	-8.54295
▁khoa	-8.54723
ừng	-8.55121
▁P	-8.55253
▁da	-8.55285
▁chữ	-8.55291
▁xu	-8.55383
ức	-8.55434
▁nặng	-8.55825
▁Bảo	-8.55882
▁tức	-8.55924
▁xong	-8.55927
▁trận	-8.56111
▁lỗi	-8.56193
▁nhằ	-8.56359
▁G	-8.56632
▁nêu	-8.57007
▁cường	-8.57335
ục	-8.57689
▁món	-8.57695
▁TN	-8.57835
▁buộc	-8.57895
▁đáp	-8.58104
▁dư	-8.58128
▁Bí	-8.58618
▁mùa	-8.58921
▁vai	-8.5917
▁15	-8.59274
▁DN	-8.59434
▁dưỡng	-8.59962
▁Cô	-8.60072
▁Hai	-8.6015
▁màu	-8.60183
▁Việc	-8.6019
ộp	-8.60512
▁môn	-8.60707
▁quê	-8.6078
Kim	-8.60789
óc	-8.60929
▁thụ	-8.60954
▁cháu	-8.61039
▁xuyên	-8.61066
▁nhượng	-8.61068
▁Thứ	-8.61147
▁Vĩnh	-8.61161
▁bồi	-8.61219
▁bước	-8.61267
ấu	-8.61444
▁cha	-8.61496
▁tốc	-8.61775
▁Phát	-8.62164
▁phiếu	-8.62169
▁mắc	-8.62204
▁nhu	-8.62345
▁cập	-8.62383
▁Gi	-8.62484
▁Năm	-8.62535
▁thất	-8.62634
▁kịp	-8.63239
▁bác	-8.63355
▁gốc	-8.63368
▁đỏ	-8.63371
▁ma	-8.6341
▁thấp	-8.63478
▁lô	-8.63977
▁sửa	-8.64033
kg	-8.64137
ần	-8.64275
▁lớp	-8.6441
▁tá	-8.64474
▁chữa	-8.64478
▁thầu	-8.64535
▁tỏ	-8.64951
▁Bản	-8.65326
▁trì	-8.65409
▁suốt	-8.65457
▁nghề	-8.6546
▁Khu	-8.65704
▁sung	-8.65713
▁họa	-8.66013
ấp	-8.66236
e	-8.66345
ào	-8.66436
▁bạc	-8.66531
▁thăm	-8.66882
▁viết	-8.66922
▁huy	-8.67422
▁Ba	-8.67466
▁giống	-8.67772
▁hòa	-8.67799
▁quán	-8.67815
▁thiệt	-8.6783
▁nghi	-8.67863
▁Hậu	-8.67886
▁nền	-8.67922
▁Hương	-8.68082
A	-8.68571
▁thảo	-8.69047
1	-8.69058
▁Cảnh	-8.69161
▁Tiên	-8.69273
òn	-8.69646
▁Thu	-8.69697
▁gi	-8.69835
▁khắc	-8.70186
▁Ngân	-8.70385
ối	-8.70509
▁khám	-8.70616
▁mặc	-8.70771
▁Qu	-8.70791
▁sợ	-8.71114
▁Vụ	-8.7134
▁sâu	-8.71389
▁Duy	-8.72021
▁cận	-8.72141
▁hã	-8.72169
▁nghỉ	-8.72485
▁loạt	-8.72518
▁bánh	-8.7252
▁Tháp	-8.72529
▁trăm	-8.72618
▁xanh	-8.727
▁đón	-8.7274
ật	-8.73118
▁ổn	-8.73499
▁lửa	-8.73717
▁lãi	-8.73749
▁ngồi	-8.73839
▁Cái	-8.74227
'.	-8.74285
▁nam	-8.74334
▁dòng	-8.75
▁duy	-8.75408
▁quanh	-8.75708
▁thỏa	-8.76215
▁vòng	-8.76352
▁cầm	-8.76502
▁kẻ	-8.76518
▁Dù	-8.76708
▁qu	-8.77077
▁thúc	-8.7766
▁rừng	-8.77852
▁quay	-8.77866
▁Thủy	-8.77894
▁lạ	-8.77946
▁Qua	-8.78079
▁lương	-8.7815
▁đau	-8.78342
▁giác	-8.78381
▁nghiên	-8.78601
▁lựa	-8.7873
▁Hóa	-8.78781
▁nhờ	-8.78966
▁Cơ	-8.79358
▁ánh	-8.79417
▁sóc	-8.80086
▁sạch	-8.80094
▁chắc	-8.80235
▁bày	-8.80294
▁đan	-8.80365
▁lái	-8.8047
▁h	-8.80602
▁ưu	-8.8074
▁vượ	-8.80959
▁vàng	-8.81201
▁ích	-8.81209
▁đổ	-8.81223
ằm	-8.81251
▁kiếm	-8.81453
▁đích	-8.81499
▁ngăn	-8.81565
▁chứ	-8.81583
▁trời	-8.81638
▁tì	-8.81673
▁tết	-8.8176
▁dị	-8.82553
▁cam	-8.82655
▁nghìn	-8.82688
▁rút	-8.82703
▁Được	-8.82804
▁can	-8.82902
▁Dân	-8.83231
B	-8.83695
ùn	-8.83758
▁Tòa	-8.84039
▁xấu	-8.84076
▁Đình	-8.84282
▁Ph	-8.84638
▁dây	-8.84787
▁Pháp	-8.85464
▁mỹ	-8.85465
▁Hàn	-8.85586
▁cà	-8.85831
▁cân	-8.8592
▁tôm	-8.86133
▁14	-8.86147
▁thủy	-8.86326
C	-8.86452
▁liền	-8.86827
▁chặt	-8.8689
ái	-8.86949
▁mấy	-8.86996
▁50	-8.87095
▁chở	-8.87096
.000	-8.87313
HH	-8.87411
▁khổ	-8.87559
▁Hoa	-8.87797
▁Lý	-8.88252
▁Định	-8.88323
▁thắng	-8.88373
▁mối	-8.88473
▁Chị	-8.88578
▁cắt	-8.88605
k	-8.88614
SN	-8.88634
▁ninh	-8.88784
▁hương	-8.88788
▁trương	-8.88963
▁trừ	-8.89491
▁lẽ	-8.895
▁trắng	-8.89636
▁Lộc	-8.89654
▁thiên	-8.89817
ăm	-8.89826
▁Đoàn	-8.89867
▁trải	-8.89871
▁lá	-8.90082
▁Đặc	-8.90402
ắm	-8.90406
iêu	-8.90487
▁hạnh	-8.90541
▁vũ	-8.90619
▁buôn	-8.90719
ắt	-8.9112
hậm	-8.91154
▁sổ	-8.91198
▁xếp	-8.91224
▁Đội	-8.91331
ẳng	-8.91401
▁đảng	-8.91446
ước	-8.91526
▁16	-8.91736
▁thôi	-8.91788
▁Bù	-8.91893
ảnh	-8.92356
▁Phong	-8.92605
▁niệm	-8.92606
▁Y	-8.92612
▁quen	-8.92632
▁túy	-8.92643
▁Quyế	-8.92794
▁lai	-8.92946
▁tồn	-8.93124
ời	-8.93937
▁sẵn	-8.94016
▁dạy	-8.9413
▁Thuận	-8.94192
▁lạnh	-8.94197
▁thịt	-8.94355
▁mật	-8.9437
▁mộ	-8.94389
▁nối	-8.94609
▁Chú	-8.95414
▁vững	-8.95598
▁tộc	-8.95691
▁PV	-8.95736
▁lượt	-8.95765
ảy	-8.95788
▁cậu	-8.95799
▁áo	-8.9603
▁may	-8.96117
ờ	-8.9623
▁thải	-8.96264
▁ngụ	-8.96841
▁thẳng	-8.96848
▁liệt	-8.9714
▁rơi	-8.97191
▁nhắc	-8.97259
▁Nhân	-8.97296
▁Vinh	-8.97365
ứa	-8.97456
▁dao	-8.97593
▁binh	-8.97597
▁ly	-8.97668
▁Quản	-8.98416
▁Nẵng	-8.98641
▁Thắng	-8.98657
▁Thạnh	-8.98726
▁đêm	-8.98753
▁Khánh	-8.9879
▁Đố	-8.98978
▁Cường	-8.9898
▁coi	-8.98997
▁Kinh	-8.99001
▁mời	-8.9907
▁uống	-8.99297
▁Nh	-8.99508
ày	-8.99656
ăng	-8.99779
TT	-9.00016
▁13	-9.00161
▁trộm	-9.00257
▁nguyện	-9.00289
▁nhuận	-9.00292
▁Lan	-9.003
▁kém	-9.00325
▁HCM	-9.00368
▁đai	-9.0039
▁đọc	-9.00425
rưởng	-9.00433
▁khối	-9.00468
▁y	-9.00493
▁khảo	-9.00516
▁đột	-9.00534
▁vong	-9.00605
▁11	-9.01219
▁Trà	-9.01367
ự	-9.01685
an	-9.01725
▁thoát	-9.01921
▁đỡ	-9.01967
▁bãi	-9.01976
▁Thường	-9.02052
▁Phúc	-9.02366
ùng	-9.02545
CP	-9.02621
▁Kỳ	-9.03465
▁Thống	-9.03622
▁Tập	-9.03702
▁sắt	-9.03721
▁chúc	-9.03911
ầm	-9.04033
▁chiếu	-9.04106
▁thẻ	-9.05202
▁Chánh	-9.05223
▁kích	-9.05224
▁cháy	-9.05238
▁Số	-9.05289
▁kia	-9.0529
▁100	-9.05363
▁dạng	-9.05422
▁Nông	-9.05429
▁cấm	-9.05449
▁phán	-9.05465
▁thái	-9.05499
▁hủy	-9.05533
▁chóng	-9.05631
▁Thương	-9.0582
▁ương	-9.06187
▁thai	-9.06341
▁quần	-9.06469
▁nhẹ	-9.06551
▁vẻ	-9.0687
▁khẩn	-9.06903
▁khiển	-9.06909
▁nhiệt	-9.06912
▁vườn	-9.06941
ỗ	-9.07223
▁hát	-9.07316
▁đen	-9.07452
▁cấu	-9.07583
▁làng	-9.08449
▁ngủ	-9.0855
▁Mạnh	-9.08657
ình	-9.08672
▁Thực	-9.08702
▁phận	-9.08721
▁Cẩm	-9.08756
▁gói	-9.08806
▁Kết	-9.0884
▁Tô	-9.08857
huyện	-9.09065
▁Trang	-9.09095
ách	-9.09575
ã	-9.0958
ấy	-9.09821
▁ngàn	-9.0986
▁bấ	-9.10032
5	-9.10113
▁âm	-9.10298
▁cướp	-9.1034
▁ngắn	-9.1037
anh	-9.1038
▁quỹ	-9.10395
▁mãi	-9.10648
▁tiểu	-9.10842
ghị	-9.11028
3	-9.11059
ua	-9.11065
▁La	-9.11071
▁thử	-9.1203
▁HLV	-9.12093
▁duyệt	-9.12116
▁máu	-9.12152
▁mưa	-9.12196
▁Kiên	-9.12265
▁Đường	-9.12421
▁nỗ	-9.12532
▁2015	-9.12759
▁thao	-9.12833
▁nhãn	-9.12903
M	-9.1319
hị	-9.13255
▁Ngô	-9.13854
▁khán	-9.13902
▁nhiễm	-9.13923
ồi	-9.13931
▁lắng	-9.13962
▁xóm	-9.14039
▁Tỉnh	-9.14039
▁mừng	-9.14361
▁Đào	-9.14553
ch	-9.14641
l	-9.1504
iểu	-9.15301
▁đoạt	-9.15843
▁Thới	-9.15959
▁tổn	-9.15989
▁tuy	-9.15996
▁ngô	-9.16025
▁tệ	-9.16065
▁Tiền	-9.1614
ôn	-9.16186
▁hề	-9.1622
▁Viện	-9.16233
▁TPHCM	-9.1633
▁ràng	-9.16708
hoảng	-9.16766
ép	-9.16883
▁Huy	-9.17001
▁Đế	-9.17661
▁lừa	-9.1778
▁cát	-9.17814
▁Sáng	-9.17828
àng	-9.1784
▁cưới	-9.17896
▁2018,	-9.17979
iện	-9.17984
▁gắng	-9.18121
▁Phi	-9.18215
▁nóng	-9.18263
▁lũ	-9.18664
▁ấm	-9.18687
iết	-9.18775
▁bờ	-9.18902
▁nại	-9.19476
▁Kiểm	-9.19587
▁Phước	-9.19629
▁đợt	-9.19676
▁đe	-9.19695
▁chắn	-9.19695
▁nửa	-9.19708
▁lắm	-9.19714
▁Gòn	-9.19735
▁bạo	-9.19784
▁dầu	-9.19821
V	-9.1985
▁Biên	-9.19871
ay	-9.20102
ị	-9.20147
▁Con	-9.20172
▁tầm	-9.20231
ọi	-9.20759
▁hối	-9.2086
em	-9.20906
▁hạt	-9.2116
▁Tư	-9.21233
▁khoán	-9.21448
▁lúa	-9.21573
Ảnh	-9.21613
▁Vậy	-9.21788
▁chuyến	-9.2179
▁lạc	-9.21828
êu	-9.21879
▁chứa	-9.21936
▁cánh	-9.22111
▁Bê	-9.22361
▁yên	-9.22372
ạn	-9.23064
▁ha	-9.23128
▁bí	-9.23305
▁thú	-9.23513
▁Đó	-9.23544
▁lan	-9.23647
▁Sa	-9.23648
▁Quy	-9.23652
▁Phan	-9.23744
▁cử	-9.23827
▁gỡ	-9.2393
▁200	-9.23947
▁Lương	-9.24029
▁Cổ	-9.2421
▁hơi	-9.2442
ài	-9.2451
▁Đa	-9.24536
▁rà	-9.24727
âm	-9.24777
▁song	-9.2479
▁Giá	-9.24851
ở	-9.24909
hiến	-9.25144
▁E	-9.25338
rao	-9.25554
▁Em	-9.25558
▁THPT	-9.25577
▁mưu	-9.25624
▁Du	-9.2564
▁Lúc	-9.25752
▁Quân	-9.25765
▁cặp	-9.25819
ồng	-9.25899
▁bật	-9.26111
▁tóc	-9.2626
hời	-9.2628
▁hài	-9.26323
▁Cao	-9.26507
▁bảng	-9.26652
▁cười	-9.26671
ười	-9.26763
▁chặn	-9.2682
▁to	-9.2687
r	-9.27233
▁clip	-9.27661
▁dứt	-9.27679
▁luyện	-9.27713
▁sóng	-9.2774
▁thầy	-9.27756
▁lở	-9.28021
iến	-9.28068
▁chậm	-9.28082
▁pháo	-9.28259
ệ	-9.28335
ánh	-9.2865
ấm	-9.28949
▁buồn	-9.28951
▁thí	-9.29058
ởi	-9.29439
hép	-9.29574
2,	-9.29644
▁Tạ	-9.2969
▁Huỳnh	-9.29791
▁Võ	-9.29799
▁nổ	-9.29818
▁chụp	-9.29826
▁Bá	-9.29828
▁nhạc	-9.2983
▁Giấy	-9.29837
▁Đồn	-9.29851
▁gió	-9.29868
▁dữ	-9.29874
▁Cty	-9.29933
▁100%	-9.29959
▁dần	-9.30068
▁dâm	-9.30087
ỹ	-9.30126
▁Toàn	-9.30165
4	-9.30214
▁Điện	-9.30254
▁22	-9.30294
▁Tâm	-9.30322
▁Họ	-9.30368
▁khóa	-9.30994
▁nhấ	-9.31026
▁phó	-9.31435
▁dựa	-9.31667
▁hy	-9.3184
▁lẻ	-9.3188
▁dõi	-9.31963
▁rượu	-9.31965
▁bè	-9.31977
▁Hữu	-9.32031
▁kèm	-9.32035
▁Ngà	-9.32039
▁dàn	-9.32067
▁ngược	-9.32069
▁tạp	-9.32146
▁Thọ	-9.32152
▁ảo	-9.32194
▁ngã	-9.32227
▁Thiên	-9.32234
uy	-9.32317
hững	-9.32521
▁màn	-9.32927
▁làn	-9.33087
iêm	-9.33305
ra	-9.33315
▁đán	-9.33794
▁kho	-9.33898
0.000	-9.33918
▁trốn	-9.34048
ường	-9.34128
▁dọa	-9.34191
▁Lợi	-9.34205
▁tươi	-9.34464
ậu	-9.34488
▁thiệu	-9.34519
oài	-9.34577
hăm	-9.34803
▁Khoản	-9.3492
▁già	-9.35351
▁CP	-9.35458
▁ngang	-9.35538
▁19	-9.35825
▁hè	-9.36332
ha	-9.36343
▁vướng	-9.36509
▁HĐXX	-9.36535
▁giàu	-9.36574
▁Phật	-9.36597
▁Q	-9.36655
▁che	-9.36662
▁chó	-9.36834
▁đập	-9.36897
▁trưng	-9.36945
▁bầu	-9.36998
iếp	-9.36999
▁hầu	-9.37013
▁Nhất	-9.37088
▁giản	-9.37101
▁giọ	-9.37189
▁Đề	-9.37199
▁chàng	-9.3747
▁khóc	-9.37839
eo	-9.37871
▁cuốn	-9.37921
hâm	-9.38136
?.	-9.38461
▁ước	-9.38678
▁tang	-9.38774
▁hoàng	-9.38781
▁Facebook	-9.38786
▁sữa	-9.388
▁chẽ	-9.38835
▁trữ	-9.38909
▁lậu	-9.3891
▁Bởi	-9.38948
▁nhiêu	-9.38952
▁I	-9.3899
▁khích	-9.39034
▁gấp	-9.39103
▁ngại	-9.39508
S	-9.39632
▁Chương	-9.39678
▁Tú	-9.39692
ệnh	-9.39935
ấn	-9.39997
▁đức	-9.40031
▁60	-9.40236
▁mã	-9.4103
▁Xuyên	-9.41202
▁núi	-9.41203
▁ngọt	-9.41224
▁hứa	-9.41394
▁lắp	-9.41496
▁ngon	-9.41541
ĐT	-9.41816
▁rau	-9.41872
▁bền	-9.41924
▁40	-9.41976
▁nhũng	-9.42425
▁heo	-9.42494
▁500	-9.43349
▁Quý	-9.43647
▁xuân	-9.43763
▁thửa	-9.4386
▁hải	-9.43881
▁Tuất	-9.43924
▁trích	-9.43955
▁gâ	-9.43982
▁địch	-9.44011
▁bạch	-9.44018
▁trào	-9.44035
▁thả	-9.44369
ạm	-9.4445
▁tụng	-9.44699
▁đám	-9.44826
ăn	-9.45061
NĐ	-9.4514
▁sàn	-9.45338
▁bù	-9.45468
▁thơ	-9.45498
▁phổ	-9.45792
▁Kế	-9.45941
▁rủ	-9.45994
hứng	-9.46046
▁QL	-9.46138
▁Hiếu	-9.4616
▁mẽ	-9.46167
▁Triều	-9.46214
âng	-9.46226
▁phấn	-9.46259
▁gỗ	-9.46267
▁thờ	-9.46282
▁kính	-9.46366
ổ	-9.46369
▁lược	-9.46389
▁Cả	-9.46438
▁Lai	-9.4652
▁canh	-9.46569
▁tháo	-9.46692
8	-9.46696
▁rời	-9.46897
▁chút	-9.47062
hâu	-9.47081
▁tim	-9.47116
ảng	-9.47121
▁giam	-9.47155
QĐ	-9.47299
D	-9.47823
▁đò	-9.4804
ết	-9.48148
▁lỗ	-9.48463
▁phi	-9.48605
▁sạt	-9.48743
▁nhánh	-9.48811
▁tuyệt	-9.4883
▁khen	-9.48884
▁2,	-9.48988
▁hầm	-9.49092
d	-9.49113
▁mái	-9.4934
▁khô	-9.49512
▁trại	-9.49701
▁gà	-9.49762
▁dàng	-9.49839
▁Vò	-9.49884
▁,	-9.49909
▁17	-9.50002
vn	-9.50066
▁mo	-9.50069
▁28	-9.50183
▁quên	-9.50186
▁dụ	-9.50332
L	-9.50929
▁ôm	-9.51025
▁hấp	-9.51224
▁Là	-9.51252
▁ngũ	-9.51328
▁Trịnh	-9.51406
▁mềm	-9.51412
▁đợi	-9.51432
▁kim	-9.51507
▁ga	-9.51725
▁lệnh	-9.51778
▁tiêm	-9.51907
▁Tùng	-9.52144
▁khủng	-9.5225
▁nàng	-9.53173
▁kháng	-9.53248
▁hoang	-9.53277
▁hung	-9.53399
ơn	-9.5354
▁giáp	-9.53913
▁Tàu	-9.54028
▁Syria	-9.54093
▁Thảo	-9.54099
▁nét	-9.5435
▁Mới	-9.54487
▁nhật	-9.54532
▁km	-9.54633
▁Nó	-9.54664
▁chạm	-9.54765
▁non	-9.54835
▁Tăng	-9.55003
năm	-9.55238
▁tôn	-9.55504
ống	-9.55877
ven	-9.55985
▁khuyế	-9.5613
òi	-9.56179
▁bắn	-9.56302
ủng	-9.56437
km	-9.56556
▁chùa	-9.56821
▁Huyện	-9.56823
▁cưỡng	-9.56883
▁ghế	-9.56902
▁Hợp	-9.56972
▁mùi	-9.57009
▁cơm	-9.57012
▁khấu	-9.57036
▁hẹn	-9.57085
▁mê	-9.57129
▁2014	-9.57149
▁Lào	-9.57155
▁lục	-9.57189
▁cọc	-9.57288
H	-9.57344
▁đâm	-9.57559
▁25	-9.57679
í	-9.57706
▁biệ	-9.57843
▁Nai	-9.57931
▁Vương	-9.5798
en	-9.58101
▁80	-9.58164
▁ngư	-9.58431
▁Hoàn	-9.58629
▁bại	-9.58802
▁dấ	-9.59225
ói	-9.59348
▁trúng	-9.59553
▁Trọng	-9.59689
▁kiệm	-9.59723
▁BHXH	-9.59727
▁Giả	-9.59732
▁lấn	-9.59965
▁Sà	-9.59973
▁lối	-9.601
▁chăn	-9.60126
▁Đăng	-9.60283
▁bò	-9.60357
ữ	-9.60381
ác	-9.60437
▁bến	-9.60552
▁Cầu	-9.60725
quận	-9.60882
▁Huế	-9.60992
▁hào	-9.61057
▁khát	-9.61569
▁Bạ	-9.61642
9	-9.62302
▁bậc	-9.62577
▁Nghĩa	-9.62596
▁Khoa	-9.62621
▁vỡ	-9.62664
▁dậy	-9.62694
▁ấn	-9.62703
▁kín	-9.62743
▁kiên	-9.62751
▁trưa	-9.62783
▁ruộng	-9.6279
▁đuổi	-9.62811
ãy	-9.62906
▁dáng	-9.62935
ngày	-9.62937
▁rối	-9.63036
xã	-9.63138
▁hùng	-9.63254
am	-9.63387
ợ	-9.63468
▁thách	-9.63517
6	-9.63544
▁cảng	-9.63558
▁nộ	-9.64169
▁Nguồn	-9.64232
TP	-9.64284
iều	-9.64656
Đ	-9.64759
▁VN	-9.64968
ắc	-9.65002
ám	-9.65163
ịp	-9.65189
▁lành	-9.65361
ơi	-9.65549
▁ruột	-9.65599
▁ngoái	-9.65616
▁Lãnh	-9.65636
▁đèn	-9.657
▁Tĩnh	-9.65715
▁đùi	-9.65721
▁khống	-9.6597
▁đậu	-9.65978
▁Bạch	-9.66003
7	-9.66004
1,	-9.66149
▁túc	-9.66204
▁GS	-9.66337
▁lân	-9.66462
▁Độ	-9.66501
▁tụ	-9.66556
x	-9.66605
▁Đài	-9.67313
▁mai	-9.67443
ai	-9.67475
ốc	-9.6773
uân	-9.67739
GT	-9.67907
0	-9.68091
▁Thạch	-9.68788
▁Bằng	-9.68818
▁Quỳnh	-9.68855
▁triệt	-9.68886
▁ngữ	-9.68887
▁xưa	-9.68888
▁Hơn	-9.68943
▁Nhơn	-9.68951
▁vinh	-9.6896
▁Hạnh	-9.69074
▁chảy	-9.69221
30	-9.6937
▁CS	-9.69429
▁Mô	-9.69456
▁loạn	-9.69518
▁rác	-9.69729
▁hẳn	-9.6978
NG	-9.69789
ôm	-9.69896
▁GD	-9.69993
▁hộp	-9.70021
▁Táo	-9.70081
▁Dư	-9.70339
▁thua	-9.7069
ỡ	-9.71203
ặp	-9.71529
ải	-9.71672
▁ấp	-9.71799
▁Huệ	-9.71943
▁Internet	-9.71954
▁huấn	-9.71977
▁nhẫn	-9.72012
▁dược	-9.72087
▁Tam	-9.72091
▁giường	-9.72116
▁ngập	-9.72122
▁Kiều	-9.72168
▁đo	-9.72243
K	-9.72283
▁mỏi	-9.72304
▁sắm	-9.72408
▁Đô	-9.72446
▁túi	-9.7245
▁Ho	-9.72642
▁sứ	-9.73105
UBND	-9.73339
▁tu	-9.73357
▁bối	-9.73447
▁hò	-9.73491
ạo	-9.73614
à	-9.73643
▁23	-9.73647
00	-9.7368
▁Ly	-9.73695
▁cống	-9.74712
▁cơn	-9.74938
▁Diễn	-9.75285
▁lão	-9.75306
▁Hằng	-9.7534
▁Răng	-9.75354
▁Park	-9.75399
▁21	-9.75407
▁thuẫn	-9.75439
▁thuyền	-9.7544
▁giật	-9.75548
▁chốt	-9.75564
▁Đạt	-9.75573
▁lâm	-9.75629
▁huyết	-9.75713
▁dâu	-9.75834
▁đàm	-9.75902
▁HĐND	-9.76011
▁Môn	-9.76012
▁mơ	-9.76089
suy	-9.76334
ung	-9.76338
MT	-9.76354
ượt	-9.76503
▁tắm	-9.76558
úng	-9.76734
hục	-9.7675
▁Kh	-9.76904
ê	-9.77066
▁35	-9.77165
▁Phả	-9.77456
▁Mậ	-9.77561
▁đáo	-9.77585
▁Nghi	-9.77609
▁Lạc	-9.7764
Cần	-9.7769
▁Tự	-9.77895
▁bê	-9.78128
ọc	-9.78196
uyên	-9.78306
▁cờ	-9.78507
▁BKS	-9.7872
▁miệng	-9.78726
▁iPhone	-9.78728
▁Địa	-9.78738
▁vẽ	-9.78798
▁rét	-9.78848
▁vỏ	-9.78875
▁Ma	-9.78917
▁xăng	-9.78921
▁Hiền	-9.78922
▁đậm	-9.78965
▁nhắn	-9.79025
▁cãi	-9.79045
▁thuyết	-9.79057
▁duyên	-9.79071
ản	-9.79075
▁Tính	-9.79158
▁sạn	-9.79161
▁tỏa	-9.79242
▁khoáng	-9.79247
▁băng	-9.79466
▁chối	-9.79659
▁pha	-9.79762
▁trôi	-9.7987
ưa	-9.79978
▁1,	-9.80683
▁300	-9.80689
▁ơn	-9.80938
▁hư	-9.81093
ồn	-9.81161
▁29	-9.8147
▁tán	-9.81924
ốt	-9.81952
gân	-9.82086
▁mắn	-9.82272
▁nhựa	-9.82315
▁Thượng	-9.82363
▁2020	-9.82378
▁sỹ	-9.82419
▁rạch	-9.82424
▁Chưa	-9.82463
▁12,	-9.82477
▁giấu	-9.82514
▁Khương	-9.82518
▁2013	-9.82532
▁tiếc	-9.82625
▁mạo	-9.82656
ừa	-9.82821
▁tràn	-9.82825
▁Vợ	-9.82835
▁Ngh	-9.82992
▁nấu	-9.83189
▁trúc	-9.83224
▁Cá	-9.83331
▁than	-9.8351
▁đấy	-9.83598
▁26	-9.83826
ộng	-9.84079
▁né	-9.84099
▁cản	-9.84284
▁cự	-9.8441
▁TS	-9.84424
▁đứ	-9.84488
R	-9.84592
▁la	-9.84638
in	-9.8486
▁Đi	-9.849
▁Riêng	-9.86002
▁50%	-9.86042
▁Điểm	-9.86062
P	-9.86131
▁Lạt	-9.862
▁ví	-9.8623
▁giận	-9.86271
▁lầm	-9.86303
▁trầm	-9.8632
▁lấp	-9.86468
▁chấm	-9.86517
▁ĐH	-9.8657
▁căng	-9.86595
on	-9.87169
▁xứ	-9.87791
▁nở	-9.87893
▁70	-9.88084
▁Di	-9.88114
▁24	-9.8814
▁bó	-9.88271
▁đền	-9.88863
án	-9.89289
▁Phụ	-9.89365
ỷ	-9.89372
▁đỗ	-9.89378
▁Hành	-9.89695
▁tung	-9.89843
▁kẹt	-9.89849
▁Phượng	-9.89871
▁bào	-9.89878
▁vắng	-9.89908
▁Thá	-9.89914
▁nhịp	-9.8992
▁mệt	-9.89924
▁bữa	-9.89926
▁lưới	-9.89945
▁lẫn	-9.89979
▁hỏng	-9.89982
▁kịch	-9.89992
▁O	-9.90046
▁ngầm	-9.90071
▁Nhung	-9.90094
▁dọn	-9.90098
▁CN	-9.90145
▁mầm	-9.90198
▁Xe	-9.90281
▁treo	-9.90307
▁xóa	-9.90342
▁chậu	-9.90567
▁Song	-9.90701
▁Cho	-9.91241
▁Dung	-9.91241
▁cắp	-9.91389
▁Cảng	-9.91461
▁Tình	-9.91542
ghệ	-9.91562
▁tha	-9.91712
ãng	-9.91778
ẫu	-9.91923
▁&	-9.91962
át	-9.92126
▁mày	-9.92661
▁Xâ	-9.92741
▁mỏ	-9.92918
▁tật	-9.93016
▁va	-9.93393
▁đãi	-9.93511
▁viễn	-9.93874
▁Thừa	-9.93911
▁taxi	-9.93911
▁Lực	-9.93952
▁Apple	-9.93983
▁khúc	-9.93993
▁đoán	-9.94019
▁thơm	-9.94147
▁CĐ	-9.94178
▁khuyên	-9.94206
▁Mặt	-9.94224
▁huynh	-9.94263
▁nắng	-9.94292
▁ẩn	-9.94336
▁thập	-9.94342
▁thảm	-9.94344
▁gọn	-9.94365
▁Cử	-9.94431
▁ngừng	-9.94554
▁xứng	-9.94617
▁hiếm	-9.94814
▁Tin	-9.95024
▁Chiến	-9.9506
▁hiệp	-9.95142
▁Thịnh	-9.95438
ịch	-9.95461
▁phú	-9.95606
▁2012	-9.95859
ịnh	-9.96339
▁chim	-9.96631
▁Su	-9.9665
▁Trả	-9.96694
uộc	-9.96736
▁150	-9.96738
G	-9.96791
v	-9.96908
iển	-9.97093
▁tả	-9.97352
▁400	-9.97426
▁Đặ	-9.9771
uôn	-9.97787
▁lồ	-9.97954
PTNT	-9.97955
▁ôtô	-9.98065
▁sụt	-9.98065
▁mũi	-9.98069
▁Thuế	-9.98101
▁xưởng	-9.98112
▁ghen	-9.98131
▁nứt	-9.98142
▁chửi	-9.98187
▁dập	-9.9821
▁Xanh	-9.98214
▁súng	-9.98365
▁lưng	-9.98522
ập	-9.98677
▁Sinh	-9.98743
▁fan	-9.9876
▁dày	-9.98761
▁trống	-9.98821
▁trùng	-9.98904
▁36	-9.99325
▁Bái	-9.99387
▁chai	-9.99439
úp	-9.99679
▁dương	-9.99893
ỗng	-10.0005
khoe	-10.0018
▁đồn	-10.0029
▁dã	-10.0037
rạm	-10.0048
▁tròn	-10.0061
▁Lệ	-10.0062
▁trọ	-10.0067
▁đạn	-10.0073
▁tách	-10.0081
▁Pu	-10.0092
▁Thi	-10.0098
Hà	-10.0107
▁Hồi	-10.0134
▁Mông	-10.0137
ẩn	-10.0159
▁CA	-10.0171
ọn	-10.0173
ét	-10.0174
▁lò	-10.0177
▁NN	-10.0234
▁Lễ	-10.0238
▁quạt	-10.0239
▁Hã	-10.0246
áng	-10.0247
▁mứt	-10.0248
▁Trị	-10.0251
▁điệp	-10.0252
▁bão	-10.0253
uổi	-10.0259
▁mạch	-10.0264
▁Land	-10.027
▁tĩnh	-10.0271
▁đỉnh	-10.0271
▁Hoài	-10.0272
▁Học	-10.0279
▁vua	-10.0284
▁móc	-10.0284
▁Thể	-10.0288
▁vết	-10.03
▁Thư	-10.0304
không	-10.0309
▁trần	-10.0315
▁đốt	-10.0321
hợ	-10.0324
▁cột	-10.0324
▁bám	-10.0352
▁tàng	-10.0383
▁cúng	-10.0387
ửa	-10.0439
▁tri	-10.0457
▁Vậ	-10.0464
▁W	-10.0507
người	-10.0533
▁Nha	-10.0536
ỉa	-10.0547
▁su	-10.0551
▁vả	-10.0554
▁The	-10.057
▁Sang	-10.0578
com	-10.0604
▁sốt	-10.0611
▁bá	-10.0612
U	-10.0652
▁lang	-10.0654
▁thù	-10.0655
▁Cà	-10.0682
▁Grab	-10.0689
▁bột	-10.0689
▁video	-10.0689
▁CSĐT	-10.069
▁Loát	-10.069
▁huống	-10.0694
▁4/2	-10.0697
▁chuỗi	-10.0701
▁Quyên	-10.0707
▁Bé	-10.071
▁PGS	-10.0721
▁Danh	-10.0728
▁mổ	-10.0751
oảng	-10.0762
7,	-10.0763
▁KH	-10.0787
▁đầm	-10.0788
▁NHNN	-10.079
ia	-10.0792
gợi	-10.081
▁Pa	-10.0826
▁1/2	-10.0829
▁nồng	-10.0843
▁ẩm	-10.0891
▁trà	-10.0891
▁Đất	-10.093
ầy	-10.094
ạt	-10.0948
▁rẻ	-10.098
ạch	-10.0986
hiểu	-10.1037
5.000	-10.1055
ựu	-10.1069
VN	-10.1071
▁nhé	-10.1082
ắk	-10.1116
▁ro	-10.1122
50	-10.1123
▁tốn	-10.1126
hức	-10.1129
▁hồn	-10.1142
▁Uber	-10.1165
▁muộn	-10.1167
▁ngộ	-10.1168
▁Lượng	-10.1173
▁thoáng	-10.1179
▁lặng	-10.118
▁ngừa	-10.1182
▁Toyota	-10.1183
▁Liêu	-10.1188
▁nút	-10.1202
iệu	-10.121
▁bồn	-10.1218
▁bơi	-10.1219
▁cỏ	-10.1223
▁dời	-10.124
▁Tuyến	-10.1243
▁Mẹ	-10.1245
▁béo	-10.1271
▁nạ	-10.1283
▁đẳng	-10.1298
▁Cai	-10.134
▁Đá	-10.1346
▁Hang	-10.1378
ế	-10.1391
ơ	-10.1395
▁Quả	-10.1399
▁đài	-10.1403
ằng	-10.1405
▁Quá	-10.1412
▁hoại	-10.1412
▁42	-10.145
êm	-10.1468
▁1.	-10.1494
▁10.000	-10.1518
▁bốn	-10.1559
ạ	-10.1562
áp	-10.1585
▁kí	-10.1633
▁3/2	-10.1641
▁Bitcoin	-10.1666
▁bớt	-10.167
▁sót	-10.1671
▁lọt	-10.1673
▁não	-10.1674
▁Lưu	-10.1678
▁2/2	-10.1684
Đồng	-10.1685
▁trượt	-10.1688
▁giỏi	-10.169
▁hưu	-10.1693
▁ngợi	-10.1694
▁chu	-10.1698
▁Bố	-10.17
▁hằng	-10.1702
▁TTGT	-10.1702
▁mực	-10.1707
▁nhầm	-10.1709
ưởng	-10.1716
▁Bạc	-10.172
▁tủ	-10.1727
▁cỡ	-10.173
▁gối	-10.1745
▁Tấn	-10.1748
▁đứt	-10.1749
▁mát	-10.1759
▁thuần	-10.1795
▁45	-10.1856
▁rực	-10.1858
▁tắt	-10.188
▁Bồ	-10.1897
al	-10.1943
▁55	-10.1944
ứt	-10.195
▁kì	-10.1965
▁Li	-10.1984
▁Mỗ	-10.1988
▁Mẫ	-10.1994
▁thận	-10.2039
▁nga	-10.2046
▁Nhi	-10.2051
▁chín	-10.2072
▁cú	-10.2133
▁dạ	-10.2152
▁củng	-10.2154
iệt	-10.2156
▁bang	-10.216
▁Vị	-10.2163
▁33	-10.2164
hắc	-10.2166
▁LĐLĐ	-10.2191
▁Campuchia	-10.2192
▁Lắk	-10.2193
▁vẹn	-10.2193
▁ngưỡng	-10.2194
▁gom	-10.2199
▁6,	-10.2204
▁bếp	-10.2206
▁Láng	-10.2208
▁tọa	-10.2208
▁rửa	-10.221
▁HTX	-10.221
▁Thụy	-10.2212
▁thượng	-10.2215
▁thự	-10.2218
▁mệnh	-10.2225
▁Khai	-10.2226
▁đẻ	-10.2229
01	-10.2232
▁trậ	-10.2234
ro	-10.2239
▁Al	-10.2242
▁bắc	-10.2257
▁dối	-10.2257
▁Phùng	-10.2261
▁chiêu	-10.227
oại	-10.227
▁mâm	-10.2274
▁Lân	-10.2291
▁Mau	-10.2295
▁say	-10.2313
▁bóc	-10.2317
▁THADS	-10.2318
▁Thổ	-10.2326
iệm	-10.2347
▁kg	-10.235
▁thở	-10.2353
▁nề	-10.2356
▁Động	-10.2359
▁p	-10.2368
ặt	-10.2374
▁bát	-10.2379
▁38	-10.238
ẩu	-10.2387
▁khói	-10.2387
▁Trì	-10.2388
▁46	-10.2389
b	-10.2392
▁lộc	-10.2393
▁vươn	-10.2402
%	-10.2434
▁lí	-10.2448
▁hôi	-10.2469
ẫn	-10.2471
6,	-10.2481
▁vỉ	-10.2485
èo	-10.2492
▁Chu	-10.2524
▁tan	-10.2545
▁came	-10.2555
▁lôi	-10.2566
ãi	-10.2574
▁Bài	-10.2579
I	-10.2584
do	-10.2597
▁0	-10.2614
▁sắ	-10.2618
▁hồng	-10.2656
▁11,	-10.2684
▁đựng	-10.275
▁Yến	-10.2757
▁Loan	-10.2758
▁10%	-10.2766
▁VKSND	-10.2766
▁sáu	-10.2767
▁đành	-10.2776
▁gạo	-10.2777
▁vội	-10.2779
▁hắn	-10.2785
▁ASEAN	-10.2787
▁Điền	-10.2787
▁VKS	-10.2788
▁Trinh	-10.2796
▁hô	-10.2804
▁lãng	-10.2808
▁tứ	-10.2813
phường	-10.2815
▁đạc	-10.2818
▁nhi	-10.2831
▁Tuyết	-10.2832
ạp	-10.2835
▁dở	-10.2837
▁Lam	-10.2849
▁1.000	-10.2855
▁Sử	-10.2864
▁Cống	-10.287
▁hỏa	-10.2871
2.	-10.2876
iền	-10.2884
ta	-10.2899
▁táo	-10.2903
▁bia	-10.2905
▁mãn	-10.2907
▁4,	-10.2907
▁san	-10.2941
▁sa	-10.2948
▁Quan	-10.2971
ược	-10.2995
▁TT	-10.3011
▁thang	-10.3041
rên	-10.3065
▁Ai	-10.3092
▁Lạ	-10.31
▁giàn	-10.3104
ruyền	-10.3126
▁cốt	-10.3157
hờ	-10.3172
▁bi	-10.3173
óng	-10.3212
▁xá	-10.3223
0%	-10.3233
▁5,	-10.3251
▁2.000	-10.3262
hệ	-10.3294
▁48	-10.3298
▁Mã	-10.3313
▁Se	-10.3329
▁CLB	-10.3331
▁Rịa	-10.3332
▁Lộ	-10.3332
▁Đầ	-10.3332
▁mượn	-10.3332
▁bì	-10.3332
▁container	-10.3337
▁lụy	-10.3339
▁luồng	-10.3342
▁phiền	-10.3343
▁buýt	-10.3344
▁im	-10.3346
▁Lập	-10.335
▁mụn	-10.335
▁mèo	-10.3351
▁BĐS	-10.3354
▁lệch	-10.3356
▁Ô	-10.3365
▁đạp	-10.3366
▁nếp	-10.3376
▁Nhiên	-10.338
▁leo	-10.338
òng	-10.3382
▁mù	-10.3382
▁nã	-10.3391
▁trọn	-10.3396
▁sánh	-10.34
▁ngột	-10.34
▁lăn	-10.3402
▁khuyết	-10.3404
▁sen	-10.3412
▁lường	-10.3437
▁Chinh	-10.3476
▁2-2,	-10.3481
XH	-10.3486
▁cắm	-10.3497
▁giây	-10.3502
▁Tử	-10.3509
▁cồn	-10.3535
▁75	-10.3537
▁1,5	-10.3543
▁thổ	-10.3556
▁kiể	-10.3582
có	-10.3605
▁hẻ	-10.3608
hi	-10.3616
theo	-10.365
▁3,	-10.3672
▁xách	-10.3686
▁Mi	-10.3698
X	-10.3726
▁xâ	-10.3769
▁tông	-10.3774
▁sốc	-10.3775
ẻ	-10.379
ho	-10.3821
▁cứng	-10.3822
▁27	-10.3834
▁F	-10.3843
▁Man	-10.3844
iên	-10.3852
▁man	-10.3885
▁Phù	-10.3893
29	-10.3933
DDCI	-10.3956
▁lỏng	-10.3956
20	-10.3956
▁Singapore	-10.396
▁Chelsea	-10.396
▁Plus	-10.396
▁Oanh	-10.3962
▁khéo	-10.3963
▁Liêm	-10.3975
ô	-10.3976
▁dừa	-10.3976
▁sà	-10.3977
▁ngõ	-10.3978
▁TCTD	-10.398
▁New	-10.3981
▁ngạch	-10.3983
▁dọc	-10.3985
▁lọc	-10.3994
NQ	-10.3998
▁Đảo	-10.4001
▁Cù	-10.4006
▁hiếp	-10.4011
▁2008	-10.4021
▁phế	-10.4023
▁1/2018	-10.4039
▁Phải	-10.4043
O	-10.4066
▁dán	-10.4069
▁nế	-10.4069
▁dà	-10.4111
▁hãi	-10.4113
▁rể	-10.4114
▁giảng	-10.4171
▁hở	-10.4173
5,	-10.4174
ỉ	-10.4179
▁thối	-10.4193
▁hà	-10.4195
Nguồn	-10.4239
▁Bao	-10.4245
TTXVN	-10.4248
ử	-10.4257
ham	-10.4266
▁32	-10.4269
om	-10.4308
co	-10.4322
▁29/1	-10.4326
au	-10.4329
rạng	-10.4344
▁Km	-10.435
ổi	-10.4352
▁xé	-10.4353
tỉnh	-10.4399
▁Khả	-10.4409
▁bông	-10.4411
▁7,	-10.4418
ld	-10.445
▁800	-10.4464
▁Tre	-10.447
▁Cứ	-10.449
▁2.	-10.4513
▁củ	-10.459
ri	-10.4598
▁Đang	-10.4604
▁yết	-10.462
CN	-10.4621
▁lề	-10.4621
▁BHYT	-10.4623
▁Olympic	-10.4623
▁BIDV	-10.4623
▁Google	-10.4623
▁hẹp	-10.4624
▁ATM	-10.4624
▁kẹo	-10.4625
▁Cup	-10.4628
ực	-10.4631
▁chè	-10.4632
▁Huyền	-10.4637
▁Huân	-10.4641
▁lội	-10.4641
▁bơm	-10.4641
▁Triệu	-10.4642
▁HĐQT	-10.4648
▁II	-10.4652
▁pin	-10.4654
▁chuyền	-10.4654
▁PVC	-10.4656
▁Thiết	-10.4657
▁mỡ	-10.466
▁Viet	-10.4661
▁khơi	-10.4661
ớ	-10.4661
▁Trump	-10.4674
▁soạn	-10.4677
▁cò	-10.4678
▁200.000	-10.4678
▁xôn	-10.468
▁võ	-10.4687
▁Hiến	-10.4697
▁đọng	-10.4703
▁Bích	-10.4703
▁đúc	-10.4704
ĩ	-10.4709
uần	-10.4714
▁dường	-10.4714
▁bón	-10.4714
/2017	-10.4715
▁20%	-10.4717
PVP	-10.4723
▁xôi	-10.4742
▁nhở	-10.4744
▁thiệp	-10.4745
uối	-10.4749
ễ	-10.475
▁nướng	-10.4752
▁ngào	-10.4774
el	-10.4776
ụng	-10.4779
hốt	-10.4782
▁Sao	-10.4792
▁xương	-10.4797
ậm	-10.4797
▁cháo	-10.4801
ẩy	-10.4813
▁88	-10.4819
▁móng	-10.4837
▁hổ	-10.4846
hiếu	-10.4894
age	-10.4901
▁Củ	-10.4916
Q	-10.4935
▁đam	-10.4939
▁khánh	-10.4958
ít	-10.4963
34	-10.4969
▁bồ	-10.5008
▁xì	-10.5025
▁khung	-10.5034
▁So	-10.5034
ốn	-10.5039
▁co	-10.5047
▁xó	-10.5057
▁vã	-10.5059
▁Thú	-10.5072
hạy	-10.5085
▁oan	-10.5092
▁9,	-10.5099
▁ghé	-10.5102
40	-10.511
▁bạ	-10.5131
▁Đàn	-10.5169
hay	-10.518
▁Nhậ	-10.5186
▁ranh	-10.5201
▁NH	-10.5207
▁bọ	-10.5213
▁Tp	-10.5223
▁ác	-10.5231
▁gó	-10.5231
con	-10.524
▁xoa	-10.5251
trong	-10.5258
iếng	-10.5259
▁Trí	-10.5259
ót	-10.5287
Theo	-10.5305
▁đà	-10.5308
▁vĩ	-10.5328
▁Malaysia	-10.5337
▁phỏng	-10.5337
▁Real	-10.5337
▁Sun	-10.5338
▁Wor	-10.5338
▁dẹp	-10.5339
▁dệt	-10.5348
▁Kiếm	-10.5351
▁hụt	-10.5354
àm	-10.536
▁đớn	-10.5362
ỳ	-10.5363
▁trộn	-10.5364
▁rỡ	-10.5367
▁rụng	-10.5369
▁PC	-10.5376
▁Sum	-10.538
▁gãy	-10.538
▁thắn	-10.5383
▁muối	-10.5385
▁Thăng	-10.5387
▁xài	-10.5388
▁diệt	-10.5389
▁Giới	-10.5394
▁lợn	-10.5396
▁đuối	-10.5406
▁mốc	-10.5416
▁thọ	-10.5437
từ	-10.5446
▁lật	-10.5466
▁Sân	-10.5469
▁phổi	-10.5469
▁biếu	-10.5471
▁trăn	-10.5475
thuộc	-10.5507
uốn	-10.551
▁khứ	-10.5526
▁Seo	-10.5534
▁xao	-10.5535
▁thoả	-10.5539
▁phà	-10.554
▁Cuố	-10.554
ưng	-10.5548
▁gác	-10.5549
▁Hô	-10.556
▁kề	-10.557
▁Toán	-10.5584
▁Ngo	-10.5588
▁khoai	-10.5634
▁Mười	-10.5638
▁dại	-10.566
▁bể	-10.5661
▁Ki	-10.5661
▁05	-10.5672
▁hảo	-10.568
Huế	-10.5724
ộn	-10.5725
ính	-10.5746
▁TTXVN	-10.5756
.500	-10.5761
▁lún	-10.5778
ti	-10.5807
ẽ	-10.5815
TC	-10.5823
oạn	-10.5835
et	-10.5895
▁Đắ	-10.591
Công	-10.5916
▁13,	-10.5916
▁Xin	-10.5931
3,	-10.5937
▁long	-10.5962
▁Ra	-10.597
▁ồn	-10.6
ả	-10.6016
er	-10.6025
15	-10.6043
un	-10.6049
▁Gò	-10.6061
ạc	-10.6062
▁ống	-10.6075
TCP	-10.6092
-25	-10.6092
▁34	-10.6094
▁vang	-10.6106
▁Valentine	-10.6106
▁Video	-10.6106
▁VĐV	-10.6109
▁bụi	-10.611
▁hoãn	-10.611
▁ATGT	-10.6111
▁Khởi	-10.6112
▁MTV	-10.6112
▁Lậy	-10.6112
▁quét	-10.6115
▁IV	-10.6116
▁bề	-10.6118
▁Trúc	-10.6119
▁Tôn	-10.6124
▁Sỹ	-10.6128
es	-10.6136
▁Đằng	-10.6142
▁bẩn	-10.6142
▁dội	-10.6144
▁gạt	-10.6146
▁sập	-10.6148
▁mạc	-10.6152
▁cậy	-10.6154
▁tàn	-10.6157
he	-10.6163
▁DNNVV	-10.6164
▁ĐBSCL	-10.6164
▁tiễn	-10.6165
ton	-10.6167
▁kem	-10.6176
▁mặn	-10.6177
▁mét	-10.618
▁Xô	-10.6182
▁rắn	-10.6184
Bộ	-10.6187
▁CEP	-10.6192
▁viêm	-10.6194
▁VFF	-10.6195
2)	-10.6195
▁Vấp	-10.6197
▁57	-10.6201
▁Bách	-10.621
hèm	-10.621
▁03	-10.6215
▁liều	-10.6224
▁chìm	-10.6226
▁thấu	-10.6234
▁trù	-10.6239
▁trâu	-10.624
CK	-10.6241
▁mỏng	-10.6243
▁đắc	-10.6256
▁Tha	-10.6264
▁Na	-10.6323
▁Bác	-10.6326
/2016/	-10.6333
▁cỗ	-10.6352
▁Hàm	-10.6355
▁500.000	-10.6362
▁vời	-10.6371
▁cành	-10.6374
vi	-10.6377
▁giấ	-10.6385
▁chăng	-10.6408
▁mồ	-10.6417
th	-10.6427
hôn	-10.6429
▁Mọ	-10.6436
chai	-10.6445
▁chê	-10.6452
4,	-10.6478
▁tân	-10.649
TB	-10.6502
▁1-2	-10.6512
▁tường	-10.6515
is	-10.6551
▁Lỗ	-10.6571
8,	-10.6594
▁92	-10.6605
▁41	-10.6614
▁thô	-10.664
▁Vi	-10.6665
tức	-10.6729
▁120	-10.6757
▁Lư	-10.676
úa	-10.6768
16	-10.6771
▁ơi	-10.6777
▁Nhì	-10.6799
ền	-10.68
▁600	-10.681
▁Cương	-10.6836
oanh	-10.6837
NH	-10.6873
▁tát	-10.6882
▁Gil	-10.6885
F	-10.6886
nay	-10.6893
oan	-10.6919
▁30/1	-10.6925
▁SX	-10.6928
▁website	-10.694
▁web	-10.694
▁PCCC	-10.694
▁THCS	-10.694
▁ATTP	-10.694
▁showbiz	-10.694
▁Gươm	-10.694
▁mươi	-10.6941
▁CATP	-10.6942
▁City	-10.6942
▁Times	-10.6943
▁Nguyệt	-10.6944
▁1999	-10.6944
▁Tín	-10.6949
▁thoái	-10.695
▁Thêm	-10.6953
▁5/2	-10.6954
▁Nghiêm	-10.6955
▁chém	-10.6958
▁mì	-10.696
▁Cựu	-10.6961
▁1.500	-10.697
▁THA	-10.6973
▁ngoan	-10.6973
▁dính	-10.6975
▁ngựa	-10.6976
▁Cố	-10.6984
▁ngơi	-10.6987
▁bụng	-10.6987
▁hiền	-10.6998
▁Vạn	-10.7014
▁gắt	-10.7016
▁rủa	-10.7022
▁Hy	-10.7029
▁giỏ	-10.7032
▁Chư	-10.7037
▁thầm	-10.7039
▁nhậu	-10.7043
▁VH	-10.7049
▁mắm	-10.7052
▁dịu	-10.7058
▁MC	-10.7059
▁lùng	-10.7067
▁Cú	-10.7071
ém	-10.7071
▁kè	-10.7071
▁12/2017	-10.7076
▁tú	-10.7079
▁hoan	-10.7085
▁dỗ	-10.7085
▁TH	-10.7095
goại	-10.7097
▁phái	-10.7098
▁nát	-10.7098
▁65	-10.7102
▁hoài	-10.7112
▁cúc	-10.7114
▁săn	-10.7115
▁gừng	-10.7116
▁nhục	-10.7118
TS	-10.7121
▁BV	-10.7131
đã	-10.7132
us	-10.7138
▁Lu	-10.7141
41	-10.7141
▁chật	-10.7152
E	-10.7158
▁Ca	-10.7189
▁cay	-10.7217
▁rào	-10.7234
▁mác	-10.7259
▁răng	-10.7273
bao	-10.7279
▁Tiế	-10.7284
▁TR	-10.729
ỏ	-10.7321
▁chấ	-10.7321
▁Da	-10.7394
▁Thù	-10.7409
VOV	-10.7418
▁Lo	-10.7434
giai	-10.7436
gõ	-10.7438
▁For	-10.7441
ưới	-10.7446
hạm	-10.746
TNMT	-10.7471
ine	-10.7489
đ	-10.749
▁85	-10.7494
▁Chứ	-10.7515
út	-10.7521
▁má	-10.7523
▁in	-10.7532
hấy	-10.7539
▁Nên	-10.7551
ộ	-10.7558
ích	-10.7559
▁gan	-10.756
▁12)	-10.758
▁Xu	-10.7614
▁Cộ	-10.7614
ẩm	-10.7618
Chú	-10.7619
▁khang	-10.7646
▁Tới	-10.7653
CS	-10.7662
▁ủ	-10.7668
▁a	-10.7669
▁hận	-10.769
▁ức	-10.7719
▁Khá	-10.7727
▁31/1	-10.7727
ặng	-10.7729
▁tấp	-10.7739
ngụ	-10.7761
íu	-10.7768
▁hố	-10.7784
▁mạ	-10.7811
▁đói	-10.7823
▁Ha	-10.7843
▁Đéc	-10.7849
▁gũi	-10.7849
▁chuộng	-10.7853
▁News	-10.7853
▁rèn	-10.7857
▁bẫy	-10.786
▁Yêu	-10.7862
▁Điệp	-10.7866
▁lùi	-10.7868
▁ốm	-10.7868
▁lãm	-10.7868
▁rũ	-10.787
▁búa	-10.7873
▁Cha	-10.7878
▁70%	-10.7878
▁Lữ	-10.7879
▁oxy	-10.7879
▁30%	-10.7881
▁Vietlott	-10.7881
▁nghẹn	-10.7883
▁trùm	-10.7883
▁Miếu	-10.7883
▁2030	-10.7884
cùng	-10.7887
▁súc	-10.7888
▁VTV	-10.7888
▁thốn	-10.7888
▁1/1/2018	-10.7889
▁8,	-10.789
▁Điển	-10.7891
47	-10.7895
▁Đạ	-10.7895
▁100.000	-10.7896
▁lứa	-10.7896
▁BP	-10.7898
▁kiếp	-10.7906
ốp	-10.791
▁lắc	-10.7914
▁Nốt	-10.7917
▁lóc	-10.7921
▁Bi	-10.7923
▁thấm	-10.7925
▁trắc	-10.7927
▁Sư	-10.7928
uýt	-10.7936
▁đếm	-10.7936
▁Hường	-10.7938
▁Khang	-10.7948
▁nốt	-10.7952
▁Chúc	-10.7961
▁Soo	-10.7977
▁Hay	-10.7985
hìn	-10.7994
▁Ngành	-10.8014
ảo	-10.8024
▁Xem	-10.8027
▁dưa	-10.8028
ướng	-10.8038
▁chúa	-10.8045
f	-10.8054
▁hiếu	-10.8055
▁tre	-10.8062
▁54	-10.8075
▁nhường	-10.8112
▁72	-10.8117
húng	-10.8125
▁chủng	-10.8126
▁thâm	-10.8126
ênh	-10.8148
va	-10.8149
aul	-10.8162
▁Chân	-10.8168
▁Bảng	-10.818
▁chiết	-10.8183
▁Mà	-10.8185
nda	-10.819
▁phe	-10.8192
uyết	-10.8197
▁Sen	-10.8207
25	-10.8226
số	-10.8248
5%	-10.8251
Phú	-10.8297
▁02	-10.8306
▁8/1	-10.8315
ứng	-10.833
▁Côn	-10.8332
▁Vang	-10.8333
ùi	-10.8355
2017.	-10.836
hôm	-10.8375
▁chán	-10.8383
▁tem	-10.8406
▁thậ	-10.8413
▁Cán	-10.8436
▁Bán	-10.8446
▁39	-10.845
▁Ri	-10.8462
▁Tác	-10.8473
BT	-10.8479
▁cấy	-10.8488
▁Hiệ	-10.8501
hĩ	-10.8502
ượng	-10.8525
uyến	-10.855
▁Mù	-10.8552
!.	-10.8557
▁thoảng	-10.8577
hẩm	-10.8593
ack	-10.8617
▁May	-10.8619
48	-10.8626
▁ĐT	-10.8661
▁bar	-10.8671
▁cước	-10.8682
▁nọ	-10.8686
▁San	-10.8701
▁bơ	-10.8709
▁soi	-10.871
▁ám	-10.8755
man	-10.8768
▁24/1	-10.8773
▁điể	-10.8776
▁ái	-10.8783
▁Australia	-10.8783
PC	-10.8789
▁cương	-10.8815
59	-10.8819
▁dì	-10.8831
▁50.000	-10.8834
▁91	-10.8834
▁mò	-10.8835
▁Samsung	-10.8849
▁Vietcombank	-10.8849
▁euro	-10.8849
▁online	-10.8849
▁Reuters	-10.8849
▁bưởi	-10.8849
▁Dubai	-10.8849
▁Viễn	-10.8856
▁Quyền	-10.8857
▁Top	-10.8862
▁sạp	-10.8862
▁Uyên	-10.8862
▁2019	-10.8866
▁xỉ	-10.8867
▁dĩ	-10.8867
▁25/1	-10.8868
ỉnh	-10.8869
▁cuồng	-10.887
▁Ngãi	-10.887
▁Diệu	-10.8871
▁73	-10.8873
▁váy	-10.8875
▁Ar	-10.8876
▁sơn	-10.8878
▁rẽ	-10.8878
▁suối	-10.8879
▁đùa	-10.8879
▁Viettel	-10.8884
▁Agribank	-10.8884
▁ôn	-10.8889
▁chả	-10.889
▁Thích	-10.8891
▁Khôi	-10.8891
▁chốn	-10.8894
▁ngạt	-10.8898
▁ti	-10.8899
▁rãi	-10.8901
▁Thập	-10.8902
INH	-10.8912
▁2010	-10.8912
▁25%	-10.8914
▁ngực	-10.892
▁PPP	-10.892
▁trứng	-10.892
▁VAMC	-10.8921
▁NSNN	-10.8921
▁GCN	-10.8922
▁múc	-10.8923
▁Vinasun	-10.8923
▁trội	-10.8925
ND	-10.8925
▁ngắm	-10.8925
▁ròng	-10.8927
▁sáp	-10.8934
di	-10.8944
.23	-10.8946
▁châ	-10.8956
▁đôn	-10.8964
▁đằng	-10.8964
▁2011	-10.8965
▁Trạ	-10.8984
▁khôn	-10.8987
▁tiệc	-10.8996
▁mắng	-10.9005
▁dạn	-10.9005
▁116	-10.901
▁vớt	-10.9016
3%	-10.902
▁điệu	-10.9025
õ	-10.9031
chưa	-10.9031
ườn	-10.904
-23	-10.9044
▁nhí	-10.905
▁phu	-10.9059
▁Trưng	-10.907
ùm	-10.9077
▁nghiêng	-10.9103
▁khắ	-10.9109
Trung	-10.911
▁khoan	-10.9123
▁chừng	-10.9137
▁hàm	-10.9141
▁31-1	-10.9143
ì	-10.9151
▁ngán	-10.9153
▁ớt	-10.9153
BA	-10.9154
▁khiếp	-10.9154
▁chua	-10.9155
to	-10.9167
▁Tần	-10.917
▁Thiện	-10.9171
▁nghiện	-10.918
▁Chung	-10.9183
ĩa	-10.9198
▁gàng	-10.9208
▁Ngọ	-10.9217
▁lít	-10.9226
hận	-10.923
7%	-10.9238
▁Thân	-10.9239
▁xẻ	-10.9265
▁li	-10.9267
4.000	-10.9273
/2017/	-10.9327
cho	-10.9332
▁37	-10.9332
sa	-10.9335
▁vân	-10.9343
▁Đâ	-10.9344
▁Hong	-10.9367
▁CB	-10.9373
yah	-10.9378
▁vạ	-10.9384
nguyên	-10.9402
▁lông	-10.9409
lo	-10.9413
Roy	-10.9416
▁hao	-10.9429
▁túng	-10.9432
▁Can	-10.9461
▁Khác	-10.9488
ó	-10.951
37	-10.9513
▁mả	-10.9515
ĩnh	-10.953
▁Phá	-10.9542
khủng	-10.9556
▁e	-10.958
Mười	-10.9584
▁bỏng	-10.9609
▁78	-10.9649
công	-10.9651
một	-10.9673
▁vãn	-10.9703
ý	-10.9705
de	-10.9706
▁van	-10.9717
DA	-10.9775
ọng	-10.9782
▁PH	-10.9789
▁vây	-10.979
,...	-10.981
▁hi	-10.981
▁47	-10.9817
ùa	-10.9829
én	-10.9874
là	-10.9892
▁rộ	-10.9903
▁tây	-10.9905
CR	-10.9912
▁Nhã	-10.9926
àn	-10.9936
▁tà	-10.9951
▁Madrid	-10.996
▁Club	-10.996
▁Nassar	-10.996
▁YouTube	-10.996
▁facebook	-10.996
▁Arsenal	-10.996
▁Daily	-10.996
▁Vietnamnet	-10.996
▁CQĐT	-10.996
▁GDNN	-10.996
▁Diễm	-10.996
▁Dell	-10.9961
▁Conte	-10.9961
▁dẻo	-10.9964
▁TNGT	-10.9966
▁80%	-10.9969
▁Sáu	-10.9969
▁ván	-10.997
▁Khê	-10.997
▁ngạc	-10.9972
▁10,	-10.9973
▁lùm	-10.9973
▁VTC	-10.9973
▁Kính	-10.9976
▁1990	-10.9977
▁tuệ	-10.9978
▁Nu	-10.9978
."	-10.9979
ie	-10.998
ation	-10.9981
▁lụt	-10.9981
▁đuôi	-10.9986
icro	-10.9987
▁giãn	-10.9987
▁Pro	-10.9991
▁trễ	-10.9993
Tô	-10.9995
▁VRG	-10.9996
▁Ocean	-10.9997
▁sỉ	-10.9999
▁Khanh	-11
▁Lee	-11.0001
▁chẩn	-11.0003
▁Hiểu	-11.0004
▁KCN	-11.0006
▁truyện	-11.0007
seo	-11.0008
▁khe	-11.0009
▁ngọ	-11.0013
▁lì	-11.0013
▁11/2017	-11.0029
▁dốc	-11.0033
▁Tiệp	-11.0035
▁2007	-11.0038
▁mạn	-11.0055
▁2,5	-11.0056
▁Biết	-11.0057
▁QSDĐ	-11.0062
▁mập	-11.0082
▁tò	-11.0089
▁cắn	-11.0094
viet	-11.0098
Hỗ	-11.0099
▁tour	-11.0103
▁gã	-11.0106
▁PVN	-11.0112
▁2009	-11.0122
▁2000	-11.0125
▁lách	-11.0127
▁Kong	-11.0129
▁tặc	-11.0135
▁hãn	-11.0135
▁Cừ	-11.0139
▁gục	-11.0141
tháng	-11.0142
▁dá	-11.0148
▁xị	-11.0155
▁Túc	-11.0155
▁cáp	-11.0164
hàng	-11.0172
▁thổi	-11.0181
uyền	-11.0185
▁BTC	-11.0196
chủ	-11.0196
UY	-11.0205
▁đắm	-11.0227
▁Kông	-11.024
4,5	-11.0243
▁Niên	-11.0243
14	-11.0254
rry	-11.0256
38	-11.0262
▁mòn	-11.0263
0,	-11.0269
▁bảy	-11.0276
▁đê	-11.028
la	-11.0291
▁Sương	-11.0294
le	-11.0297
ư	-11.0302
▁run	-11.0307
▁gay	-11.0308
▁Kon	-11.0323
▁Dĩ	-11.0341
▁3.000	-11.0368
▁nhan	-11.0373
▁ủi	-11.0375
64	-11.0375
▁tui	-11.0387
ee	-11.0387
éo	-11.0388
re	-11.0396
ảm	-11.04
DV	-11.0409
▁TM	-11.0409
▁Kha	-11.0427
ate	-11.0434
ữa	-11.0434
▁nha	-11.0435
▁tậ	-11.045
,7%	-11.0466
▁Viên	-11.0468
3.000	-11.0472
úc	-11.0474
▁đốn	-11.0475
èm	-11.0478
ạng	-11.0481
ad	-11.0497
▁My	-11.0509
▁Tu	-11.0513
▁Cam	-11.0541
▁Giữ	-11.0543
đoạn	-11.0571
▁5%	-11.0572
den	-11.0572
▁mú	-11.0576
▁thản	-11.0608
▁hái	-11.0608
uyện	-11.0611
Y	-11.0622
của	-11.0623
hào	-11.0625
cổ	-11.0626
▁sương	-11.0628
:00	-11.063
▁51	-11.064
▁Lò	-11.0648
uật	-11.0651
▁CH	-11.0663
son	-11.0667
trú	-11.0694
Phụng	-11.0722
63	-11.0757
▁Đă	-11.0761
▁04	-11.0774
DL	-11.0806
Toán	-11.0825
lít	-11.0827
▁xí	-11.0828
Em	-11.0834
▁nắ	-11.0844
w	-11.0859
uồng	-11.0865
▁nhã	-11.0868
12	-11.0881
▁1,3	-11.0901
ẫy	-11.0906
▁Khó	-11.0908
xy	-11.0911
.800	-11.0916
▁vá	-11.0923
▁phẫ	-11.0932
▁ứ	-11.0966
▁lột	-11.0981
ụ	-11.099
▁sò	-11.1006
▁Ta	-11.1008
ưu	-11.1011
ột	-11.1013
▁quang	-11.1015
▁31	-11.102
▁Ya	-11.1022
hiếc	-11.1054
▁Tứ	-11.1066
▁Đán	-11.1075
▁NS	-11.1077
▁ổ	-11.1083
▁Phí	-11.1087
▁lưỡ	-11.1135
▁mương	-11.1145
còn	-11.1149
▁(3	-11.1157
▁hàn	-11.1172
▁bùn	-11.118
▁43	-11.1198
▁phì	-11.1203
VIDEO	-11.121
▁Brazil	-11.121
▁Group	-11.121
▁London	-11.121
▁MobiFone	-11.121
▁CNVCLĐ	-11.121
▁Faiz	-11.121
▁Blue	-11.121
▁Lula	-11.121
▁XII	-11.121
GCNQSDĐ	-11.1212
▁TNCN	-11.1213
Dragon	-11.1215
wer	-11.1221
▁sỏi	-11.1223
▁Lũ	-11.1223
▁block	-11.1224
▁1994	-11.1226
▁gậy	-11.1226
▁gas	-11.1227
▁Kiệt	-11.1228
▁Đờn	-11.1229
▁mây	-11.123
▁chạp	-11.1233
▁thớt	-11.1233
▁Gar	-11.1233
▁khoăn	-11.1235
▁léo	-11.1236
▁Kiểu	-11.1236
▁cõi	-11.1241
▁lé	-11.1241
▁live	-11.1251
▁VHTTDL	-11.1251
▁viếng	-11.1255
▁Mặ	-11.1257
▁khốn	-11.1258
▁Trẻ	-11.1258
đối	-11.1258
▁nọt	-11.1259
▁khuẩn	-11.126
▁quấy	-11.1263
▁Hợi	-11.1268
▁dứa	-11.1268
▁2006	-11.1276
▁1/2/2018	-11.1276
▁phẫn	-11.1277
ơng	-11.128
thùng	-11.1283
DO	-11.1289
▁30-1	-11.1291
▁QLTT	-11.1306
▁Siêu	-11.1309
sof	-11.1311
▁gạch	-11.1317
▁Lục	-11.1318
▁Cúc	-11.132
▁kiềm	-11.132
▁đắn	-11.133
▁2/2018	-11.1333
▁lộn	-11.1336
▁cuốc	-11.1345
▁4.0	-11.1348
▁CĐT	-11.1363
▁76	-11.1367
Tr	-11.1368
▁Biể	-11.1381
▁Tám	-11.1381
58	-11.1391
▁Bồi	-11.1398
▁giế	-11.14
▁hét	-11.14
▁1,4	-11.14
▁IPO	-11.1401
▁top	-11.1411
▁Bảy	-11.1427
▁Nissan	-11.1457
ita	-11.1458
▁Vy	-11.1466
▁ráo	-11.1481
▁mờ	-11.1483
ard	-11.1493
▁tháp	-11.1495
▁rơ	-11.1495
▁62	-11.1503
▁TX	-11.1513
CO	-11.1547
▁vờ	-11.1549
▁44	-11.1558
tại	-11.1567
/11/2017	-11.157
▁2001	-11.1571
▁chưng	-11.1582
52	-11.1592
ớt	-11.1607
▁63	-11.1608
onald	-11.1626
9,	-11.1629
hấp	-11.1637
54	-11.1642
tăng	-11.1648
Trong	-11.1662
-1	-11.1686
Bình	-11.1687
▁HĐ	-11.1701
ona	-11.1709
rung	-11.172
▁5.000	-11.1723
▁Xá	-11.1736
▁nấy	-11.1744
▁ào	-11.1749
và	-11.1749
rie	-11.1751
▁nung	-11.1757
ike	-11.1759
▁12.	-11.176
35	-11.1778
hát	-11.1793
Anh	-11.1793
▁1.6	-11.1801
ếp	-11.1803
▁Kiế	-11.1807
▁ngu	-11.1807
▁Canh	-11.181
ặn	-11.1829
bi	-11.1845
▁chă	-11.1856
net	-11.1856
TV	-11.186
ma	-11.1875
Long	-11.1891
hóm	-11.1906
▁AP	-11.1912
over	-11.1926
▁tỏi	-11.1927
na	-11.1929
▁si	-11.1943
trái	-11.1957
60	-11.1963
line	-11.1967
900	-11.1973
▁ngón	-11.1982
▁1.5	-11.1984
▁đục	-11.2005
▁DA	-11.202
xinh	-11.2027
▁ID	-11.2034
..."	-11.2037
hiên	-11.2039
▁Chiế	-11.2041
88	-11.2052
ụp	-11.2103
sum	-11.2119
▁hả	-11.2119
trừ	-11.2157
quê	-11.2157
TW	-11.2169
▁Mạ	-11.2184
gọi	-11.2194
Bank	-11.2222
▁1969	-11.2223
9%	-11.2224
úy	-11.2226
▁180	-11.2237
▁6.	-11.225
è	-11.2278
▁Liễ	-11.2282
▁1.1	-11.2287
THADS	-11.2293
ựa	-11.2297
700	-11.2302
▁El	-11.2308
▁IS	-11.2321
3,4	-11.2322
hí	-11.2354
▁TC	-11.2356
▁lữ	-11.2358
urd	-11.237
/2014/	-11.2378
32	-11.2378
được	-11.2394
▁xo	-11.2397
▁sú	-11.2404
▁bỉ	-11.2421
49	-11.2423
du	-11.245
▁ao	-11.2451
▁chanh	-11.2451
ban	-11.2471
▁22/1	-11.2479
á	-11.2494
ol	-11.2495
▁Pe	-11.2507
▁12/1	-11.258
▁Inter	-11.2581
q	-11.2586
lock	-11.2622
ẫm	-11.2626
▁Hyun	-11.2626
ardi	-11.2628
▁Quỳ	-11.2632
▁siê	-11.2636
▁80-90%	-11.2638
▁Neymar	-11.2638
▁Tokyo	-11.2638
▁York	-11.2638
▁internet	-11.2638
▁EITC	-11.2638
▁ĐKKD	-11.2638
▁FLC	-11.2638
▁LHQ	-11.2638
▁Iraq	-11.2638
▁ĐBQH	-11.2638
sterol	-11.2638
▁Paris	-11.2638
▁ruồi	-11.2639
▁Sacombank	-11.2639
▁BĐG	-11.2639
▁Clip	-11.2639
▁III	-11.2639
▁logistics	-11.2639
▁25/1/2018	-11.2639
Inde	-11.264
▁Gala	-11.264
▁nấc	-11.264
▁email	-11.2641
▁Eric	-11.2642
FTA	-11.2644
▁vitamin	-11.2646
▁Star	-11.2647
▁NTD	-11.2652
▁Lĩnh	-11.2652
▁NG	-11.2652
BNN	-11.2654
▁Oai	-11.2655
▁Thuấn	-11.2655
▁Bè	-11.2656
▁Tù	-11.2656
▁290	-11.2656
▁xíu	-11.2662
▁Dan	-11.2663
▁nuốt	-11.2664
▁sướng	-11.2668
ce	-11.2673
▁Phổ	-11.2673
▁Sony	-11.2678
▁ngậm	-11.268
▁BS	-11.2681
▁Luân	-11.2682
▁xích	-11.2682
▁Mộc	-11.2684
▁Barca	-11.2684
▁hormon	-11.2684
▁Canada	-11.2685
▁Indonesia	-11.2686
▁1968	-11.2687
▁khoác	-11.2689
▁Vượng	-11.269
ệt	-11.2693
▁xoài	-11.2695
▁2.2	-11.2698
▁chuối	-11.27
▁rỉ	-11.2703
4)	-11.2707
▁nhọn	-11.2708
▁mẻ	-11.271
▁bút	-11.2713
da	-11.2714
▁2.500	-11.2716
▁Giáp	-11.2721
▁10/2017	-11.2728
▁xuôi	-11.2732
▁nghiệt	-11.2742
sau	-11.2745
▁Mo	-11.2757
▁4-2	-11.2758
▁Chiểu	-11.276
▁NK	-11.2767
học	-11.2772
▁(9	-11.2787
▁5-2	-11.2798
tra	-11.2798
▁Tuyền	-11.2802
▁chì	-11.2805
▁bội	-11.2815
▁thắm	-11.2818
▁Lac	-11.2821
▁reo	-11.283
8%	-11.2841
▁Phủ	-11.2846
ều	-11.2857
AI	-11.2857
▁MTTQ	-11.286
dat	-11.2863
▁Cang	-11.2864
▁Tích	-11.2864
▁Mitsubishi	-11.2865
▁Re	-11.2868
18	-11.2885
▁ghe	-11.2887
▁thoa	-11.2888
land	-11.2888
▁Tưởng	-11.2891
▁HS	-11.2892
▁Gre	-11.2896
▁Trân	-11.2896
toni	-11.29
▁kiều	-11.2905
▁2.0	-11.2916
▁Games	-11.2918
ộc	-11.2954
sinh	-11.2957
▁tê	-11.2958
▁Tra	-11.2961
▁4/2017	-11.2968
▁ngàng	-11.2977
địa	-11.2979
▁League	-11.2985
▁Cung	-11.2988
.400	-11.2989
▁mớ	-11.3001
60.000	-11.3006
▁(26	-11.3014
ing	-11.3015
we	-11.3022
▁băn	-11.3043
▁cạn	-11.3045
▁1)	-11.3052
ph	-11.3053
▁Lại	-11.3053
our	-11.3054
▁nụ	-11.3055
▁Big	-11.3055
▁bổng	-11.3062
KH	-11.3069
▁vải	-11.3084
hiển	-11.3085
▁nắp	-11.3093
▁(30	-11.3104
▁bừng	-11.3121
,6%	-11.3132
QH	-11.3133
tali	-11.3141
▁Bank	-11.315
ớp	-11.3163
▁71	-11.3164
▁miế	-11.3166
▁01	-11.3168
▁lam	-11.3172
go	-11.3182
▁Po	-11.3198
os	-11.3202
▁59	-11.3219
áy	-11.3253
hai	-11.3265
▁uất	-11.3266
ood	-11.3272
▁3%	-11.3274
▁(39	-11.3275
▁TNMT	-11.3288
▁lể	-11.3291
▁De	-11.3305
▁mến	-11.3313
ẹt	-11.333
Khá	-11.3366
▁Si	-11.3372
57	-11.3372
ar	-11.3378
▁Khoá	-11.3384
alo	-11.3407
/2015/	-11.3409
rương	-11.3425
ắn	-11.3446
BC	-11.3453
▁chụ	-11.3525
▁Tri	-11.3539
ero	-11.3542
hạch	-11.3566
ạnh	-11.3573
▁197	-11.3576
▁tí	-11.3581
Mỹ	-11.3593
▁110	-11.3599
ll	-11.3601
các	-11.3602
ade	-11.3624
00.000	-11.3626
▁sụ	-11.367
▁uốn	-11.3673
▁Fa	-11.3688
úi	-11.3701
W	-11.3705
▁thưa	-11.3711
▁1997	-11.3711
MP	-11.3715
▁5.	-11.3719
Lâm	-11.3719
▁Chữ	-11.3728
khoản	-11.3739
ọt	-11.3744
98	-11.377
▁rò	-11.378
ũ	-11.3785
▁160	-11.3787
▁mỉ	-11.3788
Ch	-11.3789
Vì	-11.3803
▁Vé	-11.3804
quan	-11.3811
▁ve	-11.3816
▁hòn	-11.3818
08	-11.3832
ba	-11.3842
▁Thơm	-11.3846
uyệt	-11.3854
▁gán	-11.3872
ậy	-11.3876
▁đè	-11.3876
thôn	-11.3891
HĐND	-11.3892
stre	-11.3896
NHNN	-11.3905
League	-11.3911
▁tấ	-11.3913
▁tựa	-11.3917
riển	-11.3918
▁Luận	-11.392
▁lợ	-11.3926
oán	-11.3937
▁hang	-11.3952
ter	-11.396
phun	-11.3975
CT	-11.4013
▁manh	-11.4016
39	-11.4018
▁loa	-11.4022
▁52	-11.4024
ạy	-11.4026
qua	-11.4032
-4	-11.4037
ala	-11.4038
HS	-11.4047
▁nhàng	-11.4047
▁700	-11.4059
▁đế	-11.4063
24	-11.4064
▁côn	-11.4069
▁đố	-11.4083
dai	-11.4088
ố	-11.4098
▁He	-11.4101
▁quầ	-11.4105
▁nhỉ	-11.4153
ya	-11.4172
▁Eco	-11.4185
▁tạ	-11.4201
▁0,5	-11.4217
EC	-11.4225
45	-11.4236
▁28/1	-11.4242
▁giò	-11.4248
ằn	-11.4254
▁27/1	-11.4266
▁dò	-11.4271
▁khuất	-11.4283
09	-11.4284
xi	-11.429
▁(28	-11.43
▁lặn	-11.4305
▁Aseptic	-11.4305
▁CMND	-11.4305
▁Crimea	-11.4305
▁Fortuner	-11.4305
▁Italia	-11.4305
▁Liverpool	-11.4305
▁Ollolai	-11.4305
▁VnExpress	-11.4305
▁Warriors	-11.4305
▁miligam	-11.4305
▁protein	-11.4305
▁Nokia	-11.4305
▁Ukraine	-11.4305
▁Silva	-11.4305
▁Sport	-11.4305
hiệp	-11.4306
▁smartphone	-11.4306
▁Market	-11.4306
▁nguội	-11.4307
▁Metro	-11.4307
check	-11.4307
▁Rose	-11.4307
▁PVF	-11.4308
BGTVT	-11.4308
▁GDĐT	-11.431
▁HCV	-11.431
▁Intel	-11.4311
▁Giẽ	-11.4313
▁Miễn	-11.4314
▁nghênh	-11.4314
albu	-11.4315
▁Trắng	-11.4316
▁CNQSDĐ	-11.4316
▁like	-11.4316
▁CNLĐ	-11.4317
▁250	-11.4317
▁1.000.000	-11.4318
▁2.7	-11.4318
▁khớp	-11.4319
▁Chạp	-11.4319
▁1996	-11.4319
▁Tony	-11.4321
▁Cháy	-11.4323
▁vuông	-11.4324
▁lót	-11.4326
▁2-3	-11.4327
▁3,5	-11.4327
▁Maya	-11.4329
▁nặn	-11.4329
▁chén	-11.4329
đường	-11.433
▁mịn	-11.4331
▁Phấn	-11.4332
▁CNN	-11.4333
▁450	-11.4334
ight	-11.4334
▁rẩy	-11.4336
▁1/3	-11.4336
▁kíp	-11.4339
▁cốc	-11.4339
▁1-2018	-11.4341
▁hờn	-11.4344
tri	-11.4345
▁1992	-11.4349
▁Thoại	-11.4351
▁Nghiệp	-11.4351
▁nhỡ	-11.4354
▁khoát	-11.4355
▁FDI	-11.4357
▁HAGL	-11.4358
▁EU	-11.4358
▁VNCB	-11.4359
▁TNDN	-11.436
▁bóp	-11.4362
ACV	-11.4363
▁nhì	-11.4367
▁8,5	-11.4368
75	-11.4369
SEA	-11.4369
▁tóm	-11.4371
▁thòi	-11.4375
▁NTM	-11.4375
▁1982	-11.4378
▁lỡ	-11.4378
▁NCB	-11.4379
TKV	-11.4379
▁lụ	-11.438
▁mìn	-11.438
▁Khuê	-11.438
EO	-11.4381
▁KP	-11.4383
▁anti	-11.4384
▁Đỉnh	-11.4387
▁Khiết	-11.4395
▁luộc	-11.4395
▁rốt	-11.4396
ke	-11.4405
ass	-11.4407
▁Pri	-11.4408
1)	-11.4413
Tổ	-11.4414
▁nuối	-11.4414
▁sét	-11.4415
▁rộn	-11.4429
▁BĐ	-11.4429
▁HD	-11.4432
▁CNTT	-11.4433
▁Lăng	-11.4433
▁tươ	-11.4437
hân	-11.4437
▁thạo	-11.444
ick	-11.4441
tin	-11.4442
▁Ren	-11.4446
▁24-1	-11.445
▁1993	-11.4452
▁ân	-11.4455
▁Gate	-11.4456
▁NĐT	-11.4456
▁Vina	-11.4461
▁7.	-11.4462
▁6/2017	-11.4462
▁phẳng	-11.4468
laza	-11.4479
ĐXT	-11.448
▁Gra	-11.448
▁kiệt	-11.4481
▁lu	-11.4494
spa	-11.4495
▁rã	-11.4496
ki	-11.45
▁15%	-11.4501
▁(31	-11.4502
▁nhược	-11.4504
hồng	-11.4505
▁105	-11.4511
▁...	-11.4511
▁rảnh	-11.4513
▁gấu	-11.4513
▁Hầu	-11.4516
▁Tuân	-11.4517
▁(49	-11.4534
▁nấm	-11.4535
bau	-11.4542
▁Ic	-11.4547
▁đắng	-11.4552
▁140	-11.4553
▁Cư	-11.4554
▁đặn	-11.4554
▁té	-11.4567
▁6-	-11.457
▁thắt	-11.4574
▁dê	-11.458
▁nhăng	-11.458
▁diều	-11.4583
▁mồi	-11.4585
▁Tắc	-11.4595
▁Ham	-11.4603
▁79	-11.4622
▁16/	-11.4625
200	-11.4627
▁LĐ	-11.4643
đồng	-11.4647
▁lánh	-11.4648
▁vịt	-11.4649
war	-11.4658
▁thỉ	-11.4666
▁vơ	-11.4668
▁Red	-11.467
▁68	-11.4676
▁Xa	-11.468
dal	-11.468
▁30.1	-11.4681
▁Bu	-11.4697
gay	-11.4707
▁hit	-11.4716
háng	-11.4716
▁giã	-11.4724
hoán	-11.4731
10	-11.4732
tif	-11.4736
ớn	-11.4737
▁Fo	-11.4739
69	-11.4744
TN	-11.4754
▁nập	-11.4755
uốt	-11.4762
▁Ro	-11.477
/2009	-11.4797
▁99	-11.4801
lượng	-11.4819
▁bú	-11.4826
lướt	-11.4835
▁sưa	-11.4835
▁răn	-11.4843
.12	-11.4843
▁On	-11.4846
▁08	-11.4846
▁Đôn	-11.4854
▁Rim	-11.4864
▁BT	-11.4876
▁Hạt	-11.4902
▁Hó	-11.4902
ry	-11.4911
▁Tố	-11.4918
bà	-11.4919
ỏa	-11.4933
▁11.	-11.4935
gi	-11.495
iếu	-11.4969
000	-11.4972
▁hoạn	-11.4976
▁20/1	-11.4976
yết	-11.4979
▁Ngư	-11.4984
hu	-11.4985
▁lõ	-11.4998
TD	-11.5007
▁Ed	-11.501
▁Ku	-11.501
▁Khắ	-11.5012
▁Lã	-11.5017
trên	-11.502
ội	-11.502
▁trá	-11.5021
▁tráng	-11.5044
thị	-11.5048
2/	-11.505
ĐV	-11.5067
▁vu	-11.5071
can	-11.5086
▁4.2	-11.5088
▁gặ	-11.5095
thương	-11.5117
▁Mó	-11.5132
▁Nay	-11.5136
▁Rạ	-11.5138
ừ	-11.515
▁tùng	-11.5152
▁lê	-11.5155
▁150.000	-11.5164
ist	-11.5165
▁16,	-11.517
86	-11.5203
▁Diệ	-11.5204
▁1,1	-11.5207
te	-11.5219
▁2-2	-11.5225
Quy	-11.5226
olls	-11.5246
▁1.32	-11.526
st	-11.5263
tự	-11.5288
ez	-11.5306
▁1.2	-11.5307
/1	-11.531
▁Son	-11.5316
ary	-11.5325
ợn	-11.5329
▁Fi	-11.5334
Sau	-11.5335
▁Vừ	-11.534
▁tơ	-11.5346
▁Vu	-11.5385
mẹ	-11.5387
Ông	-11.5398
▁nàn	-11.5405
nhà	-11.5412
▁tần	-11.5431
ew	-11.5436
▁2.550	-11.5455
▁the	-11.5457
2%	-11.5458
ze	-11.546
Các	-11.5474
Nhà	-11.5476
▁đạm	-11.5484
▁Hi	-11.5491
Hải	-11.5514
▁Hu	-11.553
43	-11.5537
▁le	-11.5538
Tân	-11.5548
▁1,2	-11.5558
dinh	-11.5559
uống	-11.5563
Ban	-11.5567
Hồ	-11.5574
Một	-11.5585
GTVT	-11.5602
gồm	-11.5611
▁53	-11.5613
▁Ver	-11.5622
so	-11.5632
▁ké	-11.5648
An	-11.5648
Nhật	-11.5655
ck	-11.5658
Bà	-11.5693
quậy	-11.5698
▁82	-11.5698
▁đới	-11.5699
AR	-11.57
▁Mụ	-11.5708
▁CĐC	-11.5713
phải	-11.5716
▁Phố	-11.5717
tive	-11.5722
▁nô	-11.5725
Cô	-11.5737
▁Bang	-11.5742
Việc	-11.5745
▁Thử	-11.5756
DN	-11.5771
chợ	-11.5778
TM	-11.5778
Hạ	-11.5779
▁1980	-11.578
tuần	-11.578
▁thề	-11.5795
/8/2017	-11.58
VT	-11.5802
Năm	-11.5802
-6	-11.5803
1945	-11.5806
MA	-11.5806
AM	-11.5819
▁115	-11.5831
.600	-11.5848
ươm	-11.5849
17	-11.5854
▁bong	-11.5855
▁29-1	-11.5862
8.	-11.5863
MW	-11.5864
▁xô	-11.5867
▁Va	-11.5897
▁chải	-11.5901
Vietnam	-11.5904
Nissan	-11.5908
BTC	-11.5911
▁rồng	-11.5913
▁thục	-11.5923
fan	-11.5924
-2017	-11.5942
▁11/	-11.5988
▁SH	-11.5997
▁175	-11.602
hăng	-11.6022
as	-11.6022
▁350	-11.6026
▁Vệ	-11.603
,5	-11.6039
?"	-11.6051
▁Dạ	-11.6059
▁de	-11.6081
olin	-11.609
uất	-11.6101
.1.2018	-11.6104
ững	-11.6107
ọa	-11.6125
▁125	-11.613
▁2003	-11.6139
▁En	-11.6139
háo	-11.6157
▁12/2	-11.6165
▁Món	-11.6208
▁xà	-11.6223
▁mản	-11.6231
▁Geu	-11.6246
▁dai	-11.6253
▁0,2	-11.6258
▁bún	-11.6273
▁Fal	-11.6281
-1-2018	-11.6302
hành	-11.6305
NHCSXH	-11.6305
▁BĐBP	-11.6305
▁IKEA	-11.6305
▁Idlib	-11.6305
▁Kamprad	-11.6305
▁Mexico	-11.6305
▁Natalie	-11.6305
▁Qualcomm	-11.6305
▁Starbucks	-11.6305
▁Tottenham	-11.6305
▁bitcoin	-11.6305
▁margin	-11.6305
▁Dawn	-11.6305
▁TTATGT	-11.6305
▁Woznia	-11.6305
▁Found	-11.6305
Ronaldo	-11.6305
▁Xiaomi	-11.6305
▁đũa	-11.6305
▁Victoria	-11.6305
▁06:00	-11.6305
▁View	-11.6305
▁TTDL	-11.6306
▁GEA	-11.6306
▁radio	-11.6306
▁karaoke	-11.6306
▁mướn	-11.6306
▁Bolero	-11.6307
▁Iran	-11.6307
▁Port	-11.6307
▁Miễu	-11.6307
▁nhõm	-11.6308
▁Facebooker	-11.6308
▁30/4	-11.6308
/2013/	-11.6308
▁Nhưỡng	-11.6308
▁Ass	-11.6308
▁Bắ	-11.6309
▁Nghĩ	-11.6311
▁90%	-11.6313
▁ghê	-11.6313
▁Roma	-11.6313
▁héc	-11.6315
▁25-1	-11.632
GB	-11.6324
essi	-11.6324
▁Az	-11.6325
▁Hộ	-11.6327
Là	-11.6328
▁Lãn	-11.6329
▁Sĩ	-11.6331
▁mũ	-11.6333
▁400.000	-11.6335
▁Nhuận	-11.6335
▁Kei	-11.6337
▁lỏi	-11.6337
▁Kè	-11.6338
▁Chẽ	-11.6339
▁35%	-11.634
ava	-11.634
▁Way	-11.6342
▁Mark	-11.6345
▁Cou	-11.6346
62	-11.6347
▁Hiển	-11.6352
97	-11.6356
▁calo	-11.6356
KSND	-11.6361
▁1986	-11.6362
▁vầy	-11.6364
▁kẽ	-11.6369
▁Sanchez	-11.6369
▁Thomas	-11.6369
▁CCL	-11.6373
▁BQL	-11.6376
▁1991	-11.6378
▁429	-11.6378
▁1979	-11.6379
▁bìu	-11.6381
▁Bill	-11.6385
oạt	-11.6386
ele	-11.6389
▁LS	-11.6391
▁Đợi	-11.6391
▁Ả	-11.6395
▁1987	-11.6399
▁chòi	-11.6402
▁kỉ	-11.6413
▁show	-11.6413
▁Lách	-11.6418
▁(1	-11.6418
▁Art	-11.6421
73	-11.643
oái	-11.643
đất	-11.6431
TANDTC	-11.6435
▁lẻo	-11.644
▁Mar	-11.6443
▁xơ	-11.6445
▁lưỡng	-11.6447
▁389	-11.6451
▁HNX	-11.6453
▁Italy	-11.6455
▁Gui	-11.6455
▁bừa	-11.6456
▁Van	-11.6458
ổn	-11.6459
▁gội	-11.647
▁9/1	-11.647
▁14,	-11.6472
56	-11.6477
▁12.000	-11.6481
▁tró	-11.6492
▁tuông	-11.6496
▁nhạt	-11.6499
itamin	-11.6506
▁of	-11.6506
▁(4	-11.6515
▁Lang	-11.6529
▁riết	-11.653
/4/2017	-11.6532
ov	-11.6536
▁Appa	-11.6541
▁Tea	-11.6544
▁Gas	-11.6547
▁lính	-11.655
oga	-11.655
▁Giây	-11.6556
▁ấu	-11.656
▁chuộc	-11.6562
▁16%	-11.6562
▁5-1	-11.6574
-5	-11.6576
▁80.000	-11.6576
zo	-11.6577
sin	-11.6578
tô	-11.6584
▁60%	-11.6588
▁10/1	-11.6588
▁men	-11.6592
▁19/1	-11.6607
▁vát	-11.661
ashi	-11.6613
ega	-11.6624
quy	-11.6626
89	-11.6631
▁GPMB	-11.6633
TTT	-11.6633
kin	-11.6644
ện	-11.6656
▁chảo	-11.6666
▁23/1	-11.6668
▁Mari	-11.6671
▁Mì	-11.6673
▁Tràm	-11.6674
▁Silver	-11.6682
4.500	-11.6687
▁TV	-11.6689
▁sảy	-11.6694
uôi	-11.67
▁kiêng	-11.6705
▁nhọc	-11.6708
▁trán	-11.6718
/5/2017	-11.6721
▁Ari	-11.6721
▁gố	-11.6723
▁giày	-11.6726
▁bế	-11.6727
▁900	-11.6733
gần	-11.6734
▁hẫn	-11.6736
dar	-11.674
TMV	-11.6742
▁cuộ	-11.6771
đi	-11.6773
uẩn	-11.6798
aha	-11.6806
11	-11.6822
▁01/	-11.6873
mon	-11.6881
uro	-11.6882
ron	-11.6882
▁nan	-11.6889
▁198	-11.6914
BS	-11.6923
hiện	-11.693
▁RO	-11.6932
▁AN	-11.6942
▁1.600	-11.6951
5,6	-11.696
,8%	-11.696
ưỡng	-11.6971
ily	-11.6993
600	-11.6995
/2018/	-11.6995
▁Che	-11.7
▁nôn	-11.7
▁Mộ	-11.7001
▁Bin	-11.7005
▁thừng	-11.7009
Th	-11.7012
/2/2018	-11.703
ghi	-11.7039
ul	-11.7042
▁xảo	-11.7056
1-12	-11.7072
▁HN	-11.7075
▁Kr	-11.7077
hần	-11.7087
MV	-11.7089
▁xi	-11.7126
apa	-11.7127
iêng	-11.7137
2,8	-11.7137
▁tiề	-11.7156
ne	-11.7159
ga	-11.7162
▁tị	-11.7166
▁trăng	-11.7167
rầm	-11.7185
▁cào	-11.7199
chu	-11.7232
▁vò	-11.7238
▁đơ	-11.724
72	-11.7248
anda	-11.726
rắc	-11.7266
▁mẹo	-11.7268
SM	-11.7296
ủi	-11.7309
46	-11.7312
▁(2	-11.7313
▁hước	-11.7314
▁196	-11.7316
▁vác	-11.7318
mi	-11.7332
.216	-11.736
▁Suố	-11.7365
▁(20	-11.7369
hênh	-11.7389
▁Up	-11.739
▁193	-11.7391
,1%	-11.7392
10,	-11.7408
ợt	-11.7417
amNet	-11.742
▁đệ	-11.7421
.000.000	-11.7422
▁7,5	-11.7436
hấn	-11.7457
▁Tet	-11.7461
68	-11.747
▁2:	-11.7471
ềm	-11.7482
27	-11.7484
▁đẽ	-11.7507
▁TNX	-11.7508
▁chui	-11.7511
4%	-11.7532
lần	-11.7539
▁1-	-11.7554
eed	-11.7556
rdin	-11.7556
360	-11.7558
▁Wa	-11.7582
▁ngất	-11.7585
giờ	-11.7587
▁xù	-11.7595
ko	-11.7613
5,4	-11.7615
▁8.	-11.7628
▁SN	-11.7629
▁Thoa	-11.7656
tính	-11.7656
-7	-11.7661
time	-11.7669
▁Chiề	-11.7675
▁bo	-11.7679
cha	-11.7684
▁Ve	-11.769
▁8-1	-11.7691
▁2,3	-11.7706
uck	-11.771
bị	-11.7717
65	-11.7718
ía	-11.773
13	-11.7733
▁bênh	-11.7748
▁Sam	-11.775
▁15,	-11.7756
▁135	-11.7771
▁0,4	-11.7773
cõng	-11.7785
▁2,6	-11.7789
▁Win	-11.7792
CĐ	-11.7792
▁Đan	-11.7798
DT	-11.7799
6,8	-11.7814
Phó	-11.783
CC	-11.7833
320	-11.7836
▁bách	-11.7848
95	-11.7871
IA	-11.7872
6%.	-11.7875
▁64	-11.7878
▁độn	-11.7886
bank	-11.7903
cũ	-11.791
nder	-11.7916
▁lọ	-11.7918
ớc	-11.7921
ẹo	-11.7941
Không	-11.7944
Điều	-11.7947
▁bu	-11.7968
Hòa	-11.7972
▁Kê	-11.7998
nơi	-11.8007
▁mi	-11.8009
uyển	-11.8014
▁194	-11.8031
tổ	-11.8034
SA	-11.807
Yên	-11.807
▁Cu	-11.8074
▁nới	-11.8084
chiếm	-11.8094
vé	-11.8101
stin	-11.8104
rong	-11.8112
ịt	-11.8113
▁ĐK	-11.8121
▁Fan	-11.8128
căn	-11.8131
trụ	-11.8158
heo	-11.8158
▁Fe	-11.8158
rel	-11.8159
CV	-11.816
LĐ	-11.8161
AP	-11.8164
ò	-11.8168
cái	-11.8181
az	-11.8197
ill	-11.8197
/01/2018	-11.8203
(	-11.8206
giơ	-11.8208
▁07	-11.8227
Bí	-11.8238
9/	-11.824
2/8	-11.8244
uốc	-11.8244
6/2017/	-11.8249
ãn	-11.8251
/2015	-11.8253
▁Le	-11.8255
Đoàn	-11.8256
8,8	-11.8256
PT	-11.8284
Kinh	-11.8291
▁Car	-11.83
▁gá	-11.8309
▁89	-11.831
TR	-11.8313
▁buồ	-11.833
hiêm	-11.8334
hé	-11.8347
▁No	-11.8353
▁que	-11.8358
▁Chất	-11.8364
ửi	-11.8366
thành	-11.8367
▁GT	-11.837
▁750	-11.8382
OS	-11.8399
Mitsubishi	-11.8399
GPMB	-11.84
▁khoang	-11.8406
▁1/4	-11.8407
MTTQ	-11.8409
70	-11.8409
giáp	-11.841
IPO	-11.841
tên	-11.8415
giỏ	-11.8423
uer	-11.8427
▁rách	-11.8428
55	-11.843
onic	-11.8464
cm	-11.8467
▁vú	-11.8477
▁PR	-11.848
▁Co	-11.8498
ty	-11.8499
▁al	-11.8502
▁17/1	-11.8509
▁22-1	-11.8509
▁Yam	-11.8521
8,1	-11.8523
▁Thậ	-11.8532
▁khăng	-11.8541
DS	-11.8547
▁khuy	-11.8558
ộm	-11.8559
/8/2016	-11.8572
▁son	-11.8575
▁155	-11.8578
▁90	-11.8592
74	-11.8596
hương	-11.8615
ffi	-11.8634
hầy	-11.8635
▁Bỉ	-11.8644
▁Vàng	-11.8645
Km	-11.8656
▁1985	-11.8656
66	-11.87
▁trơ	-11.8708
nóng	-11.8711
ìn	-11.8726
▁81	-11.8747
53	-11.8752
ose	-11.8771
▁1975	-11.8775
▁sá	-11.8776
BV	-11.8794
uyễn	-11.8801
▁Grand	-11.8802
BXD	-11.8805
▁Afghanistan	-11.8805
▁Alibaba	-11.8805
▁Bitconnect	-11.8805
▁Cagliari	-11.8805
▁FIFA	-11.8805
▁Filippov	-11.8805
▁Giroud	-11.8805
▁Marciano	-11.8805
▁Moscow	-11.8805
▁Rinehart	-11.8805
▁Smith	-11.8805
▁VIFON	-11.8805
▁Valencia	-11.8805
▁Versace	-11.8805
▁Vietracimex	-11.8805
▁William	-11.8805
▁XLVPHC	-11.8805
▁guitar	-11.8805
▁hybrid	-11.8805
▁Android	-11.8805
▁Guess	-11.8805
▁VinaPhone	-11.8805
▁Wenger	-11.8805
▁futsal	-11.8805
▁15/5/2014	-11.8805
▁Innova	-11.8805
▁Mohamed	-11.8805
▁NVCC	-11.8805
▁SUV	-11.8805
▁Stephen	-11.8805
▁United	-11.8805
▁Hotel	-11.8805
▁Bilal	-11.8805
▁filler	-11.8805
▁Harvey	-11.8805
▁Fair	-11.8805
▁Genco	-11.8805
▁Qatar	-11.8805
▁Vietsan	-11.8805
▁Helen	-11.8805
▁gớm	-11.8805
TTLT	-11.8805
▁ĐTQG	-11.8805
▁Peters	-11.8805
▁Premi	-11.8805
▁Super	-11.8805
▁Khmer	-11.8806
▁HIV	-11.8806
▁31/12/2017	-11.8806
▁6/55	-11.8806
▁golf	-11.8806
▁30/1/2018	-11.8806
▁06.1	-11.8807
▁ANTT	-11.8807
▁giềng	-11.8807
borg	-11.8807
▁30/9/2017	-11.8807
▁LĐLĐVN	-11.8807
UBCK	-11.8808
/9/2017	-11.8808
▁Luca	-11.8808
òa	-11.8809
▁Rẫy	-11.881
▁phèn	-11.881
▁Enro	-11.881
ames	-11.881
▁BMC	-11.8811
▁yếm	-11.8812
▁25.1	-11.8812
▁4/2016	-11.8814
.12.2017	-11.8814
room	-11.8815
▁xốp	-11.8816
▁game	-11.8816
▁06	-11.8816
▁chuột	-11.8817
LL	-11.8818
▁26/1	-11.8818
▁LD	-11.8819
▁NEM	-11.8821
▁Thuột	-11.8821
tatus	-11.8821
huyển	-11.8822
▁Kre	-11.8823
▁2025	-11.8824
▁fans	-11.8824
▁Nicol	-11.8825
oby	-11.8826
pot	-11.8826
▁Múa	-11.8828
utla	-11.8828
▁1970	-11.8829
▁Tuệ	-11.8829
▁Hỏi	-11.8829
▁1989	-11.883
Rai	-11.8831
▁Cava	-11.8833
axi	-11.8833
▁TPBank	-11.8834
▁Shin	-11.8834
▁Saudi	-11.8835
▁Got	-11.8836
▁Gạo	-11.8838
▁Hari	-11.884
▁Cuông	-11.884
▁Spo	-11.8841
port	-11.8841
Post	-11.8842
▁Luyến	-11.8842
▁15-20	-11.8842
▁mía	-11.8842
▁69	-11.8844
enko	-11.8844
▁Chè	-11.8845
▁Mèo	-11.8847
ướp	-11.8849
3.	-11.885
pop	-11.8852
cation	-11.8852
▁ngùi	-11.8854
▁1.0	-11.8856
▁Phun	-11.8857
▁Dơi	-11.8859
▁Chèo	-11.886
ler	-11.8861
▁sưởi	-11.8861
▁Roman	-11.8861
ristian	-11.8864
▁2/1	-11.8866
▁suôn	-11.8867
▁rệt	-11.8871
Trai	-11.8873
▁lượn	-11.8873
▁Min	-11.8875
▁3/2018	-11.8876
▁Mir	-11.8877
▁Mỡ	-11.8879
▁rầy	-11.8882
▁AVG	-11.8883
▁HOSE	-11.8885
▁Cloud	-11.8885
▁Pleiku	-11.8886
▁Robert	-11.8886
▁Center	-11.8886
▁Vietinbank	-11.8887
▁LP	-11.889
▁GDP	-11.8891
▁Pơ	-11.8893
▁comment	-11.8893
▁Visi	-11.8895
▁2004	-11.8899
▁5/1	-11.89
▁Kia	-11.8902
ress	-11.8904
▁Diêu	-11.8906
▁Kiêu	-11.8911
▁CT	-11.8912
▁héo	-11.8913
ense	-11.8914
▁0,3	-11.8915
▁1984	-11.892
▁Hảo	-11.8922
▁thà	-11.8924
▁ướt	-11.8925
▁riếu	-11.8925
điều	-11.8926
▁Soc	-11.8928
▁vặt	-11.8928
▁8/2017	-11.8933
awi	-11.8937
▁mẩn	-11.8947
▁418	-11.8947
▁múi	-11.8948
hiệu	-11.8949
▁xiết	-11.895
▁Atl	-11.8952
/3/2017	-11.8952
▁Mùi	-11.8953
sự	-11.8954
▁ngứa	-11.8956
DH	-11.896
▁72.1	-11.8966
▁bẩm	-11.897
▁dép	-11.8971
▁chèo	-11.8973
▁77	-11.8974
fe	-11.8979
▁tím	-11.898
hẹn	-11.8981
▁9/2017	-11.8983
rent	-11.8984
▁Ori	-11.8985
▁Sê	-11.8991
▁Huynh	-11.8992
ect	-11.8994
/2007/	-11.8994
▁hùn	-11.8994
▁rạn	-11.8995
▁Pôn	-11.8995
nhưng	-11.8996
▁Die	-11.8997
▁176	-11.8998
▁UBKT	-11.8999
▁USS	-11.9
xe	-11.9001
▁Habeco	-11.9001
▁07:00	-11.9003
▁lố	-11.9003
▁Tech	-11.9007
rấn	-11.9009
▁293	-11.9011
▁lút	-11.9014
▁phác	-11.9019
▁tớ	-11.902
bin	-11.9021
▁ISI	-11.9022
▁kép	-11.9024
▁195	-11.9037
▁2005	-11.9038
▁Đọc	-11.9043
▁Đen	-11.9045
Sham	-11.9049
▁kiệu	-11.9058
▁lẽo	-11.906
▁Cỏ	-11.9066
im	-11.9068
at	-11.9068
▁Đực	-11.9085
▁ngọc	-11.9097
▁nắn	-11.9102
/2016	-11.9105
kul	-11.9115
CG	-11.9115
▁gắm	-11.9117
▁shop	-11.9118
▁Nhu	-11.9124
▁Hết	-11.9129
allas	-11.9133
.11	-11.9157
▁bã	-11.9172
tr	-11.9172
Tuy	-11.9174
Ac	-11.9202
▁AC	-11.9209
NV	-11.9211
▁Thí	-11.9211
▁NLĐ	-11.9212
▁09	-11.9213
▁Xương	-11.9215
huyên	-11.9217
▁Lô	-11.9218
▁rưng	-11.9224
▁gầm	-11.9244
huyền	-11.9244
▁Angel	-11.9251
8/2016/	-11.9254
FF	-11.9254
ed	-11.9258
▁no	-11.9261
▁Lành	-11.9261
50.000	-11.9279
ơm	-11.9283
/1)	-11.9297
▁Nhan	-11.9302
▁Am	-11.9304
▁liêu	-11.9306
05	-11.9316
phát	-11.9319
hỉnh	-11.9325
▁gam	-11.9326
▁22-	-11.9326
▁Hap	-11.9331
ouse	-11.9335
SND	-11.9339
▁8.84	-11.9343
▁Lớ	-11.9345
▁đị	-11.935
sil	-11.9355
▁Ber	-11.9364
0.	-11.9377
▁252	-11.938
SV	-11.9413
èn	-11.9417
▁26.1	-11.9419
▁ĐB	-11.9446
▁(5	-11.945
star	-11.9455
▁27/	-11.9458
▁Iv	-11.9462
tho	-11.9467
▁lâng	-11.9469
▁Dị	-11.9472
▁5.2.	-11.9477
▁rầu	-11.9491
ness	-11.9493
▁201	-11.9494
100	-11.9496
ome	-11.9502
huyến	-11.9513
▁5214021	-11.9515
▁ngo	-11.9518
-2018	-11.9532
▁hèn	-11.9532
chi	-11.9534
▁phốt	-11.9539
SO	-11.9541
IP	-11.9569
ador	-11.9581
▁Hill	-11.9582
oms	-11.9583
▁ST	-11.9583
▁86	-11.9585
để	-11.9591
▁(197	-11.9593
khi	-11.9607
tiếp	-11.9611
▁Per	-11.9614
gỡ	-11.9619
huẩn	-11.9619
ger	-11.9626
hiệt	-11.9635
fone	-11.9642
GM	-11.9643
▁Pep	-11.9644
ights	-11.9653
oo	-11.9679
oda	-11.97
▁đấm	-11.9704
uli	-11.9706
hỏi	-11.9718
tico	-11.9718
▁sào	-11.9719
▁Chan	-11.9733
rin	-11.9747
▁hé	-11.9749
bộ	-11.9757
min	-11.9767
/6/2016	-11.9768
▁Mong	-11.978
/12/2017	-11.978
▁ốc	-11.9785
1/2005	-11.9786
hơn	-11.9791
▁94	-11.98
▁táng	-11.9801
▁Chín	-11.9809
%.	-11.9832
76	-11.9835
6%	-11.9839
điểm	-11.9843
▁5.1	-11.9846
mo	-11.9866
▁1.7	-11.9885
▁4.	-11.9889
bảo	-11.9901
▁Ngon	-11.991
ord	-11.9911
phen	-11.9932
za	-11.9932
5,3	-11.9938
amie	-11.9939
▁Thỏ	-11.995
▁ngục	-11.9952
▁2.1	-11.9954
NPT	-11.9966
ồ	-11.9981
ram	-11.9997
▁Aqu	-12.0003
▁rôn	-12.0003
-8	-12.0016
▁67	-12.0019
are	-12.0021
▁me	-12.0027
2.34	-12.0035
▁Euro	-12.0047
▁4%	-12.005
HTT	-12.007
▁NĐ	-12.0073
hộ	-12.0073
les	-12.0078
hanh	-12.0103
với	-12.0125
suc	-12.0136
▁CC	-12.0143
971	-12.0146
giảm	-12.0153
khu	-12.0154
▁Lầ	-12.016
thường	-12.017
ata	-12.0188
▁Dầ	-12.0197
ES	-12.0206
hánh	-12.021
▁trê	-12.0214
Ng	-12.0219
▁ni	-12.022
đơn	-12.0224
▁1.10	-12.0224
off	-12.0246
▁tỉa	-12.0255
hải	-12.0266
19	-12.0266
era	-12.0277
-10	-12.0279
ghe	-12.0306
Thanh	-12.0317
▁36,	-12.0319
▁24/	-12.0327
▁3-	-12.0336
▁hu	-12.0343
▁Gian	-12.0352
▁6/1	-12.0356
bằng	-12.0364
tạo	-12.0373
▁36.	-12.0401
▁Ing	-12.0413
▁Won	-12.042
!"	-12.0435
vent	-12.0439
▁83	-12.0442
▁(23	-12.0446
li	-12.0448
rái	-12.0454
80	-12.0475
▁ngà	-12.049
ky	-12.0492
▁Hoà	-12.0508
eria	-12.0523
▁Sla	-12.054
▁114	-12.055
▁w	-12.0565
▁Luôn	-12.0593
thanh	-12.0596
42	-12.0605
ble	-12.0624
!".	-12.0639
iz	-12.0647
▁QS	-12.0648
▁104	-12.065
rộm	-12.0663
▁She	-12.0668
Chính	-12.0678
▁39,	-12.0679
▁21/	-12.0716
ene	-12.0719
▁2,4	-12.0723
Tết	-12.0728
▁3,6	-12.0731
▁Sri	-12.0735
▁1,7	-12.0739
▁á	-12.0748
▁Lott	-12.0761
vợ	-12.0765
▁VI	-12.079
tan	-12.0797
▁Choi	-12.0798
/2007	-12.0801
nhiều	-12.081
▁(45	-12.0814
▁Sợ	-12.0833
99	-12.0835
.100	-12.0839
giữa	-12.0845
▁215	-12.0857
,9%	-12.086
79	-12.0863
ỏi	-12.0864
▁muỗ	-12.0866
▁11.2	-12.0868
ano	-12.0869
1.000	-12.0869
NLĐ	-12.0878
▁cộ	-12.0886
lau	-12.0888
67	-12.0898
Ninh	-12.09
6.	-12.0916
per	-12.0917
▁KI	-12.0919
▁Ke	-12.0926
20%	-12.0936
um	-12.0942
▁Wi	-12.0955
▁ngó	-12.0961
OD	-12.0962
▁bổn	-12.0967
bur	-12.0968
▁Ol	-12.0971
biến	-12.0974
chiến	-12.0992
▁Ga	-12.0992
HO	-12.0995
07	-12.0995
▁(8	-12.1011
▁Af	-12.1015
-2020	-12.102
Sở	-12.1023
▁Han	-12.1023
▁145	-12.1024
▁Oh	-12.1026
▁tảo	-12.1026
dài	-12.1029
▁Sto	-12.1033
1%	-12.1034
▁(21	-12.1038
ini	-12.105
Trước	-12.1064
eon	-12.1078
6.100	-12.1089
-3	-12.1094
2012	-12.1097
▁Đồ	-12.1111
cci	-12.1125
▁nón	-12.115
lls	-12.1162
106	-12.1171
nữ	-12.1174
▁gầ	-12.1178
▁0,	-12.1185
oin	-12.1186
▁Khe	-12.1188
▁(27	-12.1203
dưới	-12.1209
tố	-12.1215
▁đắ	-12.1215
Từ	-12.1221
cou	-12.1229
/2014	-12.1232
▁Mus	-12.124
▁11-	-12.1242
IL	-12.1244
▁mu	-12.1248
ủy	-12.1251
kể	-12.1252
▁Ko	-12.1268
,75	-12.1269
ir	-12.127
Nga	-12.1285
var	-12.1286
30,	-12.1296
▁Má	-12.1301
STC	-12.1302
▁130	-12.1303
TL	-12.1306
▁VP	-12.132
vào	-12.1324
▁Thì	-12.1339
ic	-12.1362
▁Bế	-12.1379
▁nho	-12.1383
Chỉ	-12.1387
▁tràng	-12.1395
▁(25	-12.1407
▁Bre	-12.1408
%)	-12.1413
▁26,	-12.1417
▁Sku	-12.1421
Vĩnh	-12.1425
▁23/11	-12.1432
▁Bl	-12.1437
by	-12.1438
asa	-12.1453
Khu	-12.1455
▁161	-12.1465
viết	-12.1467
Lạ	-12.1471
Hậu	-12.1476
nổi	-12.1481
ier	-12.1485
▁Hoạ	-12.1486
như	-12.1491
hối	-12.1496
▁bứ	-12.1499
250	-12.1518
▁20/11	-12.1522
Hoa	-12.1526
Cái	-12.1532
8/	-12.1547
Ô	-12.1548
nas	-12.155
ff	-12.1555
chính	-12.1559
din	-12.1559
▁5.2	-12.1566
▁Marti	-12.1568
▁mông	-12.1574
nhân	-12.1586
4/2017	-12.1593
Tiền	-12.1596
Số	-12.1597
Toàn	-12.1616
▁Đò	-12.1627
õng	-12.1628
16,	-12.1628
ún	-12.1632
mac	-12.1633
13,	-12.1637
Ba	-12.1639
khóa	-12.1644
ooth	-12.1646
PV	-12.1649
ora	-12.1651
Con	-12.1661
thiên	-12.1661
▁In	-12.167
▁31-	-12.1676
xóa	-12.1685
-2008	-12.1687
EVN	-12.1688
XHCN	-12.1689
EM	-12.1705
▁HO	-12.1712
shop	-12.1721
▁204	-12.1723
▁Dani	-12.1724
CEP	-12.1725
ST	-12.1726
VFF	-12.1726
▁31/	-12.1738
AS	-12.1739
Cầu	-12.174
,2%	-12.1741
PVN	-12.1745
▁Kar	-12.1745
▁3,2	-12.1746
chậu	-12.175
Chung	-12.1754
Xem	-12.1754
STT	-12.1762
xí	-12.1762
▁ró	-12.1768
õi	-12.1775
33	-12.1781
▁10)	-12.1788
ext	-12.1792
XT	-12.1795
▁thă	-12.1797
▁SA	-12.1801
▁165	-12.1804
▁2-	-12.1807
ric	-12.1827
▁170	-12.1852
▁156	-12.1855
▁hot	-12.1861
La	-12.1865
bong	-12.1865
tour	-12.1877
Bài	-12.189
▁13/4	-12.1891
VE	-12.1894
Hành	-12.1897
cây	-12.1899
ngành	-12.1914
GĐ	-12.1924
ca	-12.1925
chỉ	-12.1936
500	-12.1946
▁To	-12.1961
▁QU	-12.1967
▁xui	-12.1971
erg	-12.1972
ve	-12.1976
giá	-12.1977
nước	-12.1982
▁480	-12.199
ell	-12.1991
▁toà	-12.2031
144	-12.2039
ves	-12.2058
▁đả	-12.2065
ot	-12.2075
ford	-12.2078
▁côi	-12.208
hét	-12.2086
▁11/10	-12.2098
▁5-6	-12.2104
uan	-12.2108
▁cưỡ	-12.2109
...)	-12.211
26	-12.212
▁Bea	-12.2125
▁hằn	-12.2138
combank	-12.2138
▁luồn	-12.2138
3-2018	-12.2138
▁Business	-12.2138
▁Metis	-12.2138
EVNSPC	-12.2138
HoREA	-12.2138
Nusra	-12.2138
idane	-12.2138
▁ATVSLĐ	-12.2138
▁Alegre	-12.2138
▁Amazon	-12.2138
▁Aubameyang	-12.2138
▁BLHS	-12.2138
▁Bangkok	-12.2138
▁Barcelona	-12.2138
▁Broadcom	-12.2138
▁Bunpimay	-12.2138
▁Colombia	-12.2138
▁Complex	-12.2138
▁Elantra	-12.2138
▁Hoegel	-12.2138
▁IFAD	-12.2138
▁Israel	-12.2138
▁Kremlin	-12.2138
▁Lakota	-12.2138
▁Lukaku	-12.2138
▁Lumpur	-12.2138
▁Manchester	-12.2138
▁Myanmar	-12.2138
▁Piyapeauty	-12.2138
▁Pyeongchang	-12.2138
▁Rodriguez	-12.2138
▁Shibuya	-12.2138
▁Stanford	-12.2138
▁Takizaki	-12.2138
▁Venezuela	-12.2138
▁Yonhap	-12.2138
▁Youtube	-12.2138
▁café	-12.2138
▁photocopy	-12.2138
▁robot	-12.2138
FBI	-12.2138
▁Bayern	-12.2138
▁LLVT	-12.2138
▁cortisol	-12.2138
▁nghẽn	-12.2138
▁Heavy	-12.2138
▁Maassen	-12.2138
▁Everest	-12.2138
▁MUCE	-12.2138
BLDS	-12.2138
nsulin	-12.2138
▁XNK	-12.2138
▁Audi	-12.2138
▁stress	-12.2138
▁Bridge	-12.2138
▁Philippines	-12.2138
▁WWE	-12.2138
▁inox	-12.2138
thanol	-12.2138
phapluat	-12.2138
▁07/12/2016	-12.2138
▁(4/2)	-12.2138
▁Beatvn	-12.2139
▁Sofia	-12.2139
VCCI	-12.2139
▁Kings	-12.2139
▁PLVN	-12.2139
▁Niels	-12.2139
▁sexy	-12.2139
▁08:00	-12.2139
▁Bưởi	-12.2139
▁Lanka	-12.2139
▁Montre	-12.2139
▁Alpha	-12.2139
▁Oil	-12.2139
▁xệch	-12.2139
wood	-12.2139
▁AFP	-12.2139
uwai	-12.2139
▁Champions	-12.2139
▁1/500	-12.2139
▁Fran	-12.2139
fast	-12.2139
▁8-2015	-12.2139
▁Mobi	-12.2139
▁Robb	-12.2139
▁Golden	-12.2139
▁SVĐ	-12.2139
▁CNBC	-12.214
▁Harv	-12.214
▁Gold	-12.214
▁BHTN	-12.214
▁mili	-12.214
▁Andre	-12.214
▁Ever	-12.214
▁THANH	-12.214
NATO	-12.214
▁Balon	-12.214
avis	-12.214
▁2011-2015	-12.2141
▁Abe	-12.2141
▁Scott	-12.2141
▁AFC	-12.2141
▁Catal	-12.2141
▁CAND	-12.2141
▁Chrome	-12.2141
▁Berlin	-12.2141
▁thẳm	-12.2141
▁PSG	-12.2141
▁Banking	-12.2141
▁6/45	-12.2142
▁Farm	-12.2142
▁15/1	-12.2142
▁7/2/2018	-12.2142
▁Sochi	-12.2142
cola	-12.2142
▁12/2/2018	-12.2142
FL	-12.2143
PLO	-12.2143
▁14/10	-12.2143
▁Nhuệ	-12.2143
▁nhiễu	-12.2143
▁blog	-12.2144
▁3.68	-12.2144
▁Wal	-12.2144
▁One	-12.2144
▁Fb	-12.2145
▁saba	-12.2145
▁Vuong	-12.2145
▁Larry	-12.2145
▁2017-2018	-12.2145
▁USV	-12.2145
▁liễu	-12.2145
2100	-12.2146
▁(1/2)	-12.2146
▁5/2/2018	-12.2146
▁Alex	-12.2146
1993	-12.2146
▁Home	-12.2148
▁Rost	-12.2148
hợp	-12.2149
▁16.8	-12.2149
▁15/5	-12.2149
▁PVX	-12.215
▁TKCN	-12.215
▁Bửu	-12.215
for	-12.2151
▁lửng	-12.2151
▁13/2	-12.2153
▁WB	-12.2153
▁Casu	-12.2154
ME	-12.2154
▁2/2/2018	-12.2155
▁Air	-12.2155
ogen	-12.2156
oz	-12.2156
estr	-12.2156
ghani	-12.2157
▁Serie	-12.2158
ICE	-12.2158
ctor	-12.2158
▁Arab	-12.2158
▁oăm	-12.2158
HDC	-12.2159
▁ĐHĐT	-12.2159
rai	-12.216
▁nghê	-12.2161
▁XI	-12.2161
▁TNVN	-12.2161
▁69/2008	-12.2162
▁ngẫm	-12.2163
▁524	-12.2163
▁Koh	-12.2164
▁nick	-12.2165
▁iP	-12.2166
/07/2017	-12.2167
▁Ale	-12.2167
▁Bol	-12.2167
▁thỏm	-12.2169
▁Camp	-12.2169
▁20.1	-12.2171
▁Quyện	-12.2171
▁Noh	-12.2173
▁Beat	-12.2174
▁Kiệm	-12.2175
-2007	-12.2177
▁CSTT	-12.2177
▁9/2	-12.2178
▁lìa	-12.2178
▁CIC	-12.2178
40-50	-12.2178
▁Diệp	-12.2179
▁51%	-12.218
▁lẫm	-12.2181
▁0-2	-12.2181
▁Kane	-12.2181
▁65%	-12.2182
▁gồ	-12.2182
instein	-12.2188
HHVN	-12.2188
▁NAS	-12.219
etro	-12.219
▁Tuế	-12.219
▁XK	-12.2191
▁1.836	-12.2191
▁BTV	-12.2191
ner	-12.2194
▁LHPN	-12.2195
▁xộn	-12.2198
960	-12.2199
▁23.000	-12.2199
thực	-12.22
▁BTS	-12.2201
far	-12.2201
▁voi	-12.2202
▁1,9	-12.2203
Yue	-12.2204
44	-12.2204
▁Xưởng	-12.2205
dol	-12.2206
▁nhịn	-12.2207
▁1/7/2014	-12.2208
3)	-12.2209
stic	-12.221
▁2.4	-12.221
▁nháy	-12.2213
▁1977	-12.2214
2/4	-12.2214
▁vẩy	-12.2217
▁096	-12.2217
▁Xứng	-12.2217
▁mè	-12.2218
SHB	-12.2219
2078	-12.2219
▁Xoài	-12.222
▁Web	-12.2221
▁chéo	-12.2222
▁BMP	-12.2224
▁bath	-12.2225
▁xoan	-12.2229
▁Bull	-12.223
▁fil	-12.2232
▁Bàn	-12.2233
6/	-12.2233
▁8/2/2018	-12.2233
▁HNG	-12.2234
▁Mail	-12.2234
▁210	-12.2235
▁chừ	-12.2237
▁Giấ	-12.2238
▁VAC	-12.2239
▁4/2015	-12.2241
▁118	-12.2245
▁Lụ	-12.2245
▁đệm	-12.2247
▁px	-12.225
▁LĐTB	-12.225
▁GIA	-12.2251
▁TTCK	-12.2252
HD	-12.2252
▁VietinBank	-12.2253
Exc	-12.2254
▁cabin	-12.2254
▁866	-12.2256
▁1983)	-12.2258
▁trĩ	-12.226
▁Chile	-12.2261
564.	-12.2263
▁Pic	-12.2263
▁6-2017	-12.2267
-6-2017	-12.2267
▁CHCN	-12.2269
▁Kyl	-12.227
▁1961	-12.227
▁108	-12.2273
▁4,2	-12.2274
nes	-12.2274
▁10-2017	-12.2275
hớt	-12.2275
▁Bus	-12.228
▁Matt	-12.228
nhận	-12.228
▁Gri	-12.2284
▁chuồn	-12.2287
▁Marg	-12.2289
▁DD	-12.2293
91%	-12.2294
bekistan	-12.2304
AN	-12.2306
▁Thụ	-12.2307
mã	-12.2309
▁174	-12.2311
otor	-12.2311
OE	-12.2312
sman	-12.2316
▁1000	-12.2316
▁Thắm	-12.2317
resh	-12.2319
▁107	-12.232
▁Nhiệm	-12.2321
ầng	-12.2323
tha	-12.2323
▁lặt	-12.2327
5555	-12.2328
▁1998	-12.2328
TTr	-12.2331
334/	-12.2333
▁víu	-12.2335
QG	-12.2336
oko	-12.2345
▁viêc	-12.2349
hám	-12.235
▁3.2	-12.2353
eller	-12.2354
▁Pla	-12.2355
CA	-12.2358
▁nhừ	-12.2359
▁Mắt	-12.2365
ow	-12.2367
▁(17	-12.2367
owin	-12.2367
▁Phnom	-12.2371
hỏa	-12.2372
▁36,8	-12.2372
221/	-12.2375
▁Info	-12.2376
▁16-	-12.2384
IN	-12.2385
▁giời	-12.2389
ster	-12.2393
hung	-12.2396
▁duệ	-12.2397
ping	-12.2401
▁bìa	-12.2402
▁GP	-12.2404
3/6/2017	-12.2404
▁quái	-12.2407
NN	-12.2407
serve	-12.2409
ver	-12.2414
▁36%	-12.2416
▁Cl	-12.2428
bang	-12.2433
▁Wang	-12.2436
▁172	-12.244
▁Cẩn	-12.2441
▁Gong	-12.2442
54%	-12.2443
▁Diên	-12.2443
▁bướng	-12.2447
▁119	-12.2447
thu	-12.2448
Việt	-12.2451
▁Ali	-12.2461
ting	-12.2463
▁Đỏ	-12.2466
▁CIT	-12.2467
▁Kas	-12.2475
ence	-12.2475
▁Hen	-12.2476
▁Has	-12.2476
▁Twi	-12.2476
tam	-12.2481
▁lờ	-12.2491
800	-12.2491
shua	-12.2492
▁Lim	-12.25
;)	-12.2503
▁5/2017	-12.2509
▁AT	-12.2511
▁Lãng	-12.2512
▁Huyên	-12.2513
▁chừa	-12.2518
mail	-12.2519
▁xăm	-12.2521
▁Sing	-12.2525
IS	-12.2526
-17	-12.2527
▁KN	-12.2528
avid	-12.2529
91	-12.2531
▁nẻ	-12.2541
isio	-12.2544
cơ	-12.2545
▁Mun	-12.2545
▁hắt	-12.2549
▁ngơ	-12.2551
erb	-12.2554
▁Tum	-12.2556
eyang	-12.2558
ali	-12.2558
▁127	-12.2565
▁Dig	-12.2567
▁ngự	-12.2572
▁Georgi	-12.2577
▁rát	-12.2579
fi	-12.2582
▁GĐ	-12.2587
,4%	-12.2587
▁Medi	-12.2596
▁von	-12.2596
▁tróc	-12.2596
▁505	-12.2602
1954	-12.2608
▁Novo	-12.2613
▁AS	-12.2634
▁giòn	-12.2636
plas	-12.2636
gu	-12.2646
▁675	-12.2652
OT	-12.2657
▁247	-12.2657
▁113	-12.2658
▁dãi	-12.266
RE	-12.266
mini	-12.2661
che	-12.2664
▁2%	-12.2665
▁116.	-12.2668
▁ngụy	-12.2671
dong	-12.2677
-12-201	-12.268
▁Vung	-12.2681
21	-12.2691
▁vun	-12.2692
.488	-12.2693
▁niê	-12.2695
Ph	-12.2703
▁49	-12.2706
117	-12.271
?!	-12.272
VNN	-12.2724
/01/201	-12.2724
▁Thia	-12.2724
▁Mel	-12.2731
▁Của	-12.2732
7.	-12.2744
2/11/2016	-12.2748
cki	-12.2752
▁Ne	-12.2755
▁Martin	-12.2757
▁tạc	-12.2763
▁chót	-12.2766
▁hốc	-12.2775
pee	-12.2776
▁SV	-12.2784
▁lốc	-12.2799
sai	-12.2812
▁3-2	-12.2815
râu	-12.282
uel	-12.2822
rải	-12.2842
bố	-12.2845
▁74	-12.2847
▁IT	-12.285
▁3/2017	-12.2851
ment	-12.2852
▁''	-12.2859
esla	-12.2871
243	-12.2879
maha	-12.2894
▁Vietnam	-12.2896
2/2017	-12.2899
▁Cốc	-12.2903
▁Shi	-12.2903
wal	-12.2905
ika	-12.2913
.4.201	-12.2917
op	-12.2917
sel	-12.2922
ins	-12.2923
▁Ot	-12.2928
▁Chải	-12.2935
▁Tế	-12.2935
▁Los	-12.2945
695	-12.2948
▁giặc	-12.2956
XU	-12.296
ụt	-12.2972
▁MW	-12.2973
▁lim	-12.2975
▁hổi	-12.2985
▁Kat	-12.2998
45,	-12.3004
yển	-12.3011
▁Cat	-12.3013
1973	-12.3029
▁56	-12.303
▁BH	-12.3039
▁phở	-12.3044
▁1.76	-12.3045
3.600	-12.3047
▁Soi	-12.3049
71	-12.3056
▁nhái	-12.3062
▁cút	-12.3063
▁Lặc	-12.3063
▁na	-12.3065
▁Mora	-12.3072
doanh	-12.3074
▁QN	-12.3074
1-	-12.3075
▁năn	-12.3086
▁Thôn	-12.3089
▁95	-12.3093
▁Sard	-12.3109
▁10/10/201	-12.3111
▁Đạm	-12.3111
▁Mu	-12.3113
1,5	-12.3116
▁Fl	-12.3122
▁Giỏ	-12.3137
hường	-12.314
▁chảnh	-12.3146
lus	-12.3147
▁2.9	-12.3164
9,8	-12.3169
5,9%	-12.3175
2:	-12.3177
▁nhung	-12.3184
▁28-	-12.3188
aza	-12.3193
ravel	-12.3201
480	-12.3205
Nguyễn	-12.3221
ps	-12.3222
những	-12.3223
2.000	-12.3224
▁ù	-12.3229
▁trướng	-12.3235
▁66	-12.3237
▁ki	-12.3257
bus	-12.3261
016.	-12.3264
.850	-12.3277
py	-12.3282
▁122	-12.3304
1965	-12.3319
702	-12.3338
emi	-12.3353
iot	-12.3367
▁cược	-12.3369
hội	-12.3371
rang	-12.3371
5/12/2017	-12.3372
1/2013	-12.3387
andows	-12.3401
TTCP	-12.3417
▁kha	-12.3434
ứ	-12.3435
/02/2018	-12.3435
7,7%	-12.3441
▁(15	-12.3447
▁TA	-12.3468
▁Sta	-12.3469
hích	-12.347
7-8	-12.3472
700-	-12.3475
óa	-12.348
▁Barr	-12.3495
iếc	-12.3499
ital	-12.3501
▁loà	-12.3502
▁Gó	-12.3511
▁2.59	-12.3514
▁8%	-12.3517
▁Ung	-12.3528
Qu	-12.3528
▁dồ	-12.3534
▁Uz	-12.3539
▁Sna	-12.3546
▁đươ	-12.3548
▁sắn	-12.357
▁lổng	-12.3571
é	-12.3572
SXH	-12.3593
ander	-12.3599
▁hạc	-12.36
▁56.	-12.3604
722	-12.3614
222	-12.3617
▁(198	-12.3617
-2	-12.3628
ran	-12.3632
▁19.	-12.3644
.93	-12.365
▁dào	-12.3652
all	-12.3654
▁WA	-12.3669
▁phô	-12.3683
!'	-12.3687
lier	-12.3694
hưởng	-12.3697
%).	-12.3702
lam	-12.3736
đến	-12.3736
▁Phu	-12.3736
rồng	-12.3737
▁ngẩn	-12.3738
kar	-12.3743
riso	-12.3752
▁họng	-12.3758
▁Vin	-12.3762
ợi	-12.3762
▁Nào	-12.3772
ợp	-12.3785
4/11/2017	-12.3786
▁rợ	-12.3796
3/4/2017	-12.38
oàn	-12.3811
▁Nghiê	-12.382
nie	-12.3857
mmy	-12.3861
▁20/10	-12.3866
▁Gắn	-12.3868
hật	-12.3877
oi	-12.3882
des	-12.3882
CNC	-12.3884
tion	-12.3886
dự	-12.389
lay	-12.3895
Cò	-12.3898
03	-12.3899
hông	-12.3915
PI	-12.3915
rid	-12.3917
▁Her	-12.3926
ater	-12.3934
nhất	-12.3936
QT	-12.3936
▁phụng	-12.3937
▁băm	-12.3949
mart	-12.396
▁Uy	-12.3966
1/8/2016	-12.3971
đa	-12.3975
ển	-12.398
▁bục	-12.3991
ET	-12.3993
▁Hon	-12.3999
▁đinh	-12.401
▁ham	-12.4019
40-4	-12.4037
▁1%	-12.4043
▁Tur	-12.4053
vì	-12.4058
▁trầu	-12.4073
▁sô	-12.408
▁77,	-12.4098
▁3.7	-12.4101
"-	-12.4108
78	-12.4145
▁13/1	-12.4157
▁tab	-12.4159
ếch	-12.416
8)	-12.4163
chuyển	-12.4167
ippe	-12.4167
▁ỏi	-12.4168
.530	-12.4184
▁phàn	-12.4187
▁Ying	-12.4195
▁830	-12.4204
▁vung	-12.4242
▁Mal	-12.4257
yêu	-12.4286
7,6	-12.429
gian	-12.4291
xin	-12.4301
▁Trầ	-12.4325
Quốc	-12.4326
▁10/5	-12.4329
ition	-12.4349
ese	-12.4351
cách	-12.4359
0,4	-12.438
▁14.1	-12.4381
▁4/	-12.4384
iếm	-12.4385
▁4,0	-12.439
▁Hoan	-12.4416
aria	-12.4428
bs	-12.4453
▁LE	-12.4453
rez	-12.4453
PK	-12.4457
năng	-12.4463
▁Tả	-12.4464
▁138	-12.4469
khách	-12.4473
mặt	-12.4473
diện	-12.4503
▁thơi	-12.4504
▁ngác	-12.4506
tar	-12.4506
/12/2016	-12.4519
/2/19	-12.4521
gluc	-12.4537
uocho	-12.455
2009	-12.4554
tượng	-12.4562
317	-12.4574
▁Tông	-12.4583
▁Bã	-12.4583
TX	-12.4584
phòng	-12.4592
▁phúng	-12.4593
Nam	-12.4596
262	-12.4605
▁532	-12.461
hot	-12.4612
▁kị	-12.4617
▁Don	-12.4617
sti	-12.4645
let	-12.4654
▁um	-12.4675
▁216	-12.4675
/9/2016	-12.47
▁nhả	-12.4704
olog	-12.4711
ươn	-12.4718
ies	-12.4725
gốc	-12.4736
cá	-12.4757
ui	-12.4766
oa	-12.4769
4,4	-12.4772
gatt	-12.4781
▁nạt	-12.4785
quốc	-12.4787
sống	-12.4788
▁6,6	-12.4792
▁2)	-12.4809
▁UB	-12.4813
▁As	-12.4817
▁Edi	-12.4833
▁tro	-12.4835
/7/2017	-12.4843
▁mé	-12.4851
0-200	-12.4877
▁Vol	-12.4887
▁dặ	-12.4888
trạm	-12.4897
12,	-12.4907
▁Trư	-12.4908
hạc	-12.4909
▁26/	-12.4911
tham	-12.4912
lina	-12.4918
▁PA	-12.4926
hía	-12.4927
▁Gu	-12.4938
▁Pr	-12.4943
▁khan	-12.4951
▁5)	-12.4958
▁Op	-12.496
31	-12.4973
▁nà	-12.4974
6.500	-12.4978
11/2016	-12.4981
làm	-12.4992
▁?	-12.4992
đánh	-12.5009
bùng	-12.5014
đại	-12.502
thi	-12.5028
▁166	-12.5033
▁Mang	-12.5049
▁504	-12.5056
4/	-12.5059
hỉ	-12.506
▁(19	-12.506
7.8	-12.5078
▁1.200	-12.5087
trẻ	-12.5091
rô	-12.5092
bia	-12.5094
Cà	-12.5095
▁hù	-12.5098
/11/2016	-12.5105
und	-12.5108
/2018	-12.5145
80.000	-12.515
Thành	-12.5168
▁61	-12.5187
▁189	-12.5189
▁Or	-12.5189
▁8.3	-12.519
đều	-12.5193
atis	-12.5205
art	-12.5206
dan	-12.5206
807	-12.5213
ìa	-12.5236
▁đực	-12.5242
▁lú	-12.5254
Đố	-12.5263
▁vở	-12.5266
,36	-12.5271
hảy	-12.5277
ain	-12.5278
sáng	-12.528
nis	-12.5282
▁Tạng	-12.5286
hướng	-12.5289
CH	-12.5294
▁29/9	-12.5302
TH	-12.5308
▁58	-12.5314
▁se	-12.5327
hếch	-12.5349
su	-12.5357
-2,	-12.5366
thiết	-12.5367
▁rụ	-12.5369
▁101	-12.537
1500	-12.5374
▁Mc	-12.5383
▁66,	-12.5386
vận	-12.5393
oul	-12.5402
đầu	-12.5408
▁sọ	-12.5421
▁1.4	-12.5433
▁Bos	-12.546
bên	-12.5462
huy	-12.5476
stan	-12.5477
7,5	-12.5487
▁Hal	-12.5498
▁tản	-12.5504
22	-12.5507
đạt	-12.5508
93	-12.5514
▁thỏ	-12.5522
▁khoá	-12.5538
iver	-12.5538
1-0	-12.5549
hòng	-12.5555
sức	-12.5557
thay	-12.556
pha	-12.5567
ừu	-12.557
▁lầ	-12.5579
▁Kho	-12.5603
har	-12.5616
95%	-12.5622
▁167	-12.5628
▁Fli	-12.5637
Lê	-12.564
▁Yu	-12.5642
lẩu	-12.5648
đội	-12.5652
▁úp	-12.5655
▁LO	-12.5655
.5)	-12.5663
▁(196	-12.5678
.300	-12.5681
Khi	-12.569
hoát	-12.5694
toán	-12.5742
▁370	-12.5753
9-2017	-12.5762
ẻo	-12.5767
Đông	-12.5776
▁23,6	-12.5779
XX	-12.5794
-11	-12.5796
▁9/10	-12.5797
▁Ru	-12.5807
77	-12.5813
eat	-12.5817
khao	-12.5825
nội	-12.5828
/2017.	-12.5835
gọt	-12.5836
▁87	-12.5855
▁ngoa	-12.5855
qu	-12.5857
động	-12.5859
▁TTX	-12.5864
▁97	-12.5873
long	-12.5875
hói	-12.5877
ame	-12.5883
bo	-12.5888
ủa	-12.5891
▁KT	-12.5896
yên	-12.5896
▁(?	-12.59
top	-12.5902
1/2017/	-12.5908
riêng	-12.5908
Bắc	-12.5913
ac	-12.592
kh	-12.5922
vô	-12.5943
rình	-12.5957
▁6.1	-12.5958
ers	-12.5967
gor	-12.597
▁Sy	-12.5975
ox	-12.5989
pe	-12.6015
USD	-12.6021
Tổn	-12.6022
hìa	-12.6031
▁1-1	-12.6032
Giám	-12.6038
lô	-12.6039
0-4	-12.6045
Thái	-12.6046
HĐT	-12.6048
sư	-12.606
1/	-12.6076
▁lượ	-12.6079
▁5,8	-12.6085
▁10/	-12.6088
▁143	-12.6092
câu	-12.6094
ls	-12.6101
Hiện	-12.6106
chia	-12.6109
Hưng	-12.611
▁màng	-12.6123
▁OS	-12.6129
Có	-12.6148
bổ	-12.6151
▁25/	-12.6157
ail	-12.6161
11-2017	-12.6162
96	-12.6179
han	-12.6179
▁AF	-12.6188
▁Bia	-12.619
ửu	-12.619
▁Thai	-12.6191
trận	-12.62
mer	-12.6213
Chi	-12.6217
Hồng	-12.6218
ụy	-12.6224
Bảo	-12.6227
▁10/2016	-12.6234
cư	-12.6235
OP	-12.6242
món	-12.6243
1-10	-12.6244
▁Bo	-12.6248
▁trệ	-12.625
lớp	-12.6258
Qua	-12.6262
▁Lấ	-12.6266
▁lậ	-12.6273
▁đờ	-12.6278
vòng	-12.629
lon	-12.6292
▁cap	-12.63
tấn	-12.63
si	-12.6305
kiếm	-12.6308
cán	-12.6314
đóng	-12.6324
▁đấ	-12.6325
4,6	-12.6337
ev	-12.6342
Thuận	-12.6349
NY	-12.6352
▁lã	-12.6362
▁Sé	-12.6362
▁Thà	-12.6372
dge	-12.6373
VNG	-12.638
Khánh	-12.6381
▁14/4	-12.6384
▁Te	-12.6393
lượt	-12.6398
Tây	-12.6415
▁út	-12.6422
Dân	-12.6426
▁Tai	-12.6438
tter	-12.6442
▁muô	-12.6443
▁Par	-12.6444
▁Đứ	-12.6447
981	-12.6454
▁Cher	-12.6456
Cẩm	-12.6457
▁Hiê	-12.6459
cak	-12.6464
VND	-12.6469
onel	-12.647
▁tuý	-12.6478
pto	-12.6479
cent	-12.6486
TPHCM	-12.6487
▁DI	-12.6495
Vậy	-12.6496
43%	-12.6497
chuyến	-12.6497
Lúc	-12.6502
▁1.20	-12.6504
lương	-12.6507
▁hơ	-12.6508
▁26/01	-12.6509
oả	-12.6513
▁xư	-12.6518
bật	-12.6529
3,3	-12.6541
bí	-12.6545
mô	-12.6551
ruộng	-12.656
Đó	-12.6565
Hợp	-12.657
001.	-12.6575
2-2	-12.6582
egor	-12.6588
rễ	-12.6589
QSDĐ	-12.659
100%	-12.6597
▁Dựng	-12.6597
Bạch	-12.6606
▁Lon	-12.6606
PG	-12.6607
0.4	-12.6609
Hàn	-12.6615
gher	-12.6625
CB	-12.663
Land	-12.6634
▁DV	-12.6641
1.2018	-12.6642
VKS	-12.6648
PGS	-12.665
▁146	-12.6651
ASEAN	-12.6655
iệp	-12.6663
LH	-12.6667
▁Nỗ	-12.6667
▁rồ	-12.6667
TTGT	-12.6671
Mẹ	-12.6673
▁61,	-12.6673
Trump	-12.6673
ĐH	-12.6677
Bạc	-12.6677
rách	-12.6677
Ngã	-12.6677
8.3	-12.6681
ĐBSCL	-12.6684
DNNVV	-12.6684
6.12	-12.6686
túi	-12.6687
Vinasun	-12.6695
07:00	-12.6696
Vợ	-12.6699
VH	-12.6702
VAMC	-12.6704
NSNN	-12.6704
bóc	-12.6704
Tăng	-12.6706
▁Thố	-12.6706
thả	-12.6706
Tech	-12.6706
Habeco	-12.6706
Tư	-12.6706
UBKT	-12.6707
PPP	-12.671
QLTT	-12.6712
Italy	-12.6712
thông	-12.6713
Dạ	-12.6714
GCN	-12.6716
kiêng	-12.6717
HNX	-12.672
Sinh	-12.6721
▁22.	-12.6722
28	-12.6722
eki	-12.6724
CNTT	-12.6727
15%	-12.6727
thổi	-12.6731
Georg	-12.6736
óp	-12.6736
▁ngườ	-12.6749
Vina	-12.6749
▁vượng	-12.6756
▁1988	-12.6757
▁MI	-12.6757
▁190	-12.6759
ĐK	-12.6769
11)	-12.6771
Dự	-12.6771
▁33.	-12.6779
Viet	-12.6792
▁151	-12.6814
SE	-12.683
vel	-12.6836
▁Kum	-12.6849
▁Levan	-12.685
▁ổi	-12.6851
▁29/	-12.6854
Cho	-12.6867
▁Fre	-12.6871
kistan	-12.6875
2-4	-12.6889
Mong	-12.6894
▁550	-12.6895
iel	-12.69
yer	-12.6909
sor	-12.6919
/1/2018	-12.692
lat	-12.6922
▁192	-12.6922
nsta	-12.6923
2,5	-12.6924
▁28/	-12.6927
▁MT	-12.6932
TU	-12.6939
▁(7	-12.6941
▁3.5	-12.6962
,5%	-12.6965
▁thắ	-12.6966
▁Pha	-12.6966
▁Bas	-12.6967
Sa	-12.6985
amer	-12.6987
hê	-12.6989
9)	-12.6989
▁luâ	-12.6993
▁220	-12.6993
af	-12.6994
▁cu	-12.6994
▁Kẹ	-12.6996
▁Đổ	-12.7001
sào	-12.7002
SG	-12.7003
hán	-12.7011
TA	-12.7013
▁BX	-12.7014
dân	-12.7016
ind	-12.7027
/2008/	-12.7032
cò	-12.7033
trường	-12.7036
▁2011-	-12.7047
▁11/1	-12.7049
▁Phil	-12.705
▁Ben	-12.705
▁LHP	-12.7051
▁cù	-12.7054
.200	-12.7055
iter	-12.7066
Bán	-12.7071
▁28/0	-12.7072
▁Christ	-12.7081
▁23/9	-12.7084
ẳn	-12.71
▁tron	-12.7104
▁trồ	-12.7108
▁15/10/	-12.7108
▁Show	-12.7112
▁Smart	-12.7121
3-3	-12.7121
CE	-12.7122
17,	-12.7123
▁20/2	-12.7123
▁mụ	-12.7126
▁nhắ	-12.7127
▁117/	-12.7131
ah	-12.7133
vien	-12.7133
▁(1,2	-12.7137
▁Bartol	-12.7138
▁Phillip	-12.7138
▁Vnexpress	-12.7138
-056	-12.7138
Eurostat	-12.7138
Eurozone	-12.7138
OECD	-12.7138
Sabeco	-12.7138
TMDVNN	-12.7138
TTATXH	-12.7138
XPVPHC	-12.7138
aneiro	-12.7138
uventus	-12.7138
▁1/1/2008	-12.7138
▁30-35%	-12.7138
▁5500205424	-12.7138
▁Argentina	-12.7138
▁Birmingham	-12.7138
▁Bkav	-12.7138
▁Bloomberg	-12.7138
▁Café	-12.7138
▁Championship	-12.7138
▁Debuchy	-12.7138
▁Dellacroce	-12.7138
▁Donbass	-12.7138
▁Ethereum	-12.7138
▁Formosa	-12.7138
▁Francisco	-12.7138
▁Gartner	-12.7138
▁Getty	-12.7138
▁Gillooly	-12.7138
▁Gonzalez	-12.7138
▁Guatemala	-12.7138
▁Gustav	-12.7138
▁Handoff	-12.7138
▁Helitechco	-12.7138
▁Hitler	-12.7138
▁Holocaust	-12.7138
▁IELTS	-12.7138
▁Kabul	-12.7138
▁Lacazette	-12.7138
▁Leonard	-12.7138
▁Munawer	-12.7138
▁Paige	-12.7138
▁Petrobras	-12.7138
▁Phapluat	-12.7138
▁Redknap	-12.7138
▁Residence	-12.7138
▁SCMP	-12.7138
▁Suarez	-12.7138
▁Talent	-12.7138
▁Telecom	-12.7138
▁Texas	-12.7138
▁Thurman	-12.7138
▁VLXD	-12.7138
▁VĐQG	-12.7138
▁WannaCry	-12.7138
▁WeChat	-12.7138
▁bolivars	-12.7138
▁concert	-12.7138
▁condotel	-12.7138
▁deadlift	-12.7138
▁fashion	-12.7138
▁glycogen	-12.7138
▁iTunes	-12.7138
▁poster	-12.7138
▁testosteron	-12.7138
▁EVNGENCO	-12.7138
▁Leopard	-12.7138
▁Navara	-12.7138
▁Vimat	-12.7138
CNRP	-12.7138
SLNA	-12.7138
▁Company	-12.7138
▁DQC	-12.7138
▁Guardiola	-12.7138
▁OnePlus	-12.7138
▁PGone	-12.7138
▁Toophan	-12.7138
▁Brother	-12.7138
▁Munich	-12.7138
▁Weibo	-12.7138
222222	-12.7138
Dimsum	-12.7138
market	-12.7138
▁02-08	-12.7138
ealand	-12.7138
select	-12.7138
uckerberg	-12.7138
▁028-	-12.7138
▁Vogt	-12.7138
▁Watford	-12.7138
▁20/10/199	-12.7138
▁Solar	-12.7138
▁VPĐK	-12.7138
▁VietnamNet	-12.7138
▁1/10/2016	-12.7138
▁Auto	-12.7138
▁India	-12.7138
▁Stree	-12.7138
▁Axan	-12.7138
▁Weinstein	-12.7138
▁bonsai	-12.7138
VDPC	-12.7138
ohnson	-12.7138
▁Ritz	-12.7138
▁Island	-12.7138
ourmet	-12.7138
▁Abraham	-12.7138
▁Oliver	-12.7138
▁VPCC	-12.7138
▁HPE	-12.7139
▁Guardi	-12.7139
-4-2013	-12.7139
▁(12%)	-12.7139
▁Khmum	-12.7139
▁Monde	-12.7139
▁Airbus	-12.7139
▁Housing	-12.7139
▁(2/2)	-12.7139
ERA	-12.7139
Interpol	-12.7139
▁Karate	-12.7139
▁TTKS	-12.7139
prof	-12.7139
ĐVCĐ	-12.7139
▁0,05	-12.7139
▁05/02/2018	-12.7139
Petersburg	-12.7139
▁Noah	-12.7139
▁Assad	-12.7139
▁ipad	-12.7139
▁Wind	-12.7139
▁TTĐB	-12.7139
▁HĐLĐ	-12.7139
▁Saku	-12.7139
▁Fella	-12.7139
▁Face	-12.7139
▁04/01/2018	-12.7139
▁photo	-12.7139
6/2005	-12.7139
▁Telegra	-12.7139
▁22.74	-12.7139
▁Asahi	-12.7139
▁IBM	-12.7139
ww	-12.7139
▁Atlant	-12.7139
▁18:9	-12.7139
▁Hugo	-12.7139
▁Capital	-12.7139
▁Feed	-12.7139
▁HAG	-12.7139
Type	-12.7139
▁31/12/2018	-12.7139
▁27/12/2017	-12.7139
▁Idol	-12.7139
ited	-12.7139
▁Faye	-12.7139
DHG	-12.714
▁ship	-12.714
▁HCD	-12.714
▁Diana	-12.714
▁EXO	-12.714
▁NHTM	-12.714
▁28/1/2018	-12.714
8.07	-12.714
VINA	-12.714
▁24/1/2018	-12.714
▁Vidal	-12.714
▁2013-2017	-12.714
▁16-11-2017	-12.714
▁Awards	-12.714
▁Lăk	-12.714
▁Vios	-12.714
▁Airb	-12.714
▁Sokha	-12.714
iyeh	-12.714
▁Naka	-12.714
5/10/20	-12.714
▁6.6	-12.714
▁Troll	-12.714
2127	-12.714
▁Dailymail	-12.714
▁HANA	-12.714
mAh	-12.714
hydro	-12.714
▁2016-2020	-12.714
▁17-4	-12.7141
▁Oreo	-12.7141
▁31/12/2015	-12.7141
zil	-12.7141
▁gờm	-12.7141
001:200	-12.7141
▁17/11/2017	-12.7141
▁EUR	-12.7141
consin	-12.7141
▁2012-2016	-12.7141
▁High	-12.7141
▁1/2000	-12.7141
▁Hilton	-12.7141
▁18/3	-12.7141
▁XIV	-12.7142
02/0	-12.7142
4/199	-12.7142
/2005/	-12.7142
▁56,1	-12.7142
▁9/2015	-12.7142
▁HVA	-12.7142
▁Kerr	-12.7142
▁1-2%	-12.7142
▁Santa	-12.7143
▁302/3	-12.7143
▁Wall	-12.7143
▁Liga	-12.7143
ixel	-12.7144
.11.2017	-12.7144
▁10/9	-12.7144
enz	-12.7144
▁1/1/2017	-12.7144
UBKTTW	-12.7144
▁21/12/2017	-12.7144
real	-12.7144
▁Hub	-12.7144
▁8-2017	-12.7144
ingham	-12.7144
▁15.5	-12.7144
VPF	-12.7145
://	-12.7145
▁chlor	-12.7145
▁56.4	-12.7145
▁35-40	-12.7145
▁22/12/2017	-12.7145
▁Book	-12.7145
▁Giàu	-12.7145
▁RAM	-12.7145
▁2011-2016	-12.7145
ourne	-12.7145
glyc	-12.7145
▁Grande	-12.7146
▁30/12/2016	-12.7146
▁CNVC	-12.7146
▁ngoãn	-12.7147
▁22,7	-12.7147
▁sofa	-12.7147
▁Code	-12.7147
▁828	-12.7147
▁7-7	-12.7147
▁5.2017	-12.7147
▁0,1	-12.7147
▁Napoli	-12.7147
udd	-12.7147
BNV	-12.7148
▁US	-12.7148
▁2.300	-12.7148
▁Gol	-12.7148
▁72.15	-12.7148
▁CHI	-12.7148
CVĐ	-12.7148
▁14/2	-12.7148
Comed	-12.7148
-11-2017	-12.7149
▁Time	-12.7149
▁Hwa	-12.7149
▁7/2018	-12.7149
▁0913	-12.7149
▁Nhẹ	-12.7149
▁mướt	-12.715
▁Comp	-12.715
,02%	-12.715
▁Ike	-12.715
7/2010	-12.715
▁Sports	-12.715
▁Gấc	-12.715
BCA	-12.7151
FSA	-12.7151
▁6/5	-12.7151
▁1995)	-12.7152
▁Master	-12.7152
▁Nice	-12.7152
Ibrahim	-12.7153
▁Axi	-12.7153
-8-2017	-12.7154
559	-12.7154
▁bướu	-12.7154
▁1/5	-12.7154
▁17.1	-12.7154
▁279.	-12.7155
▁nhò	-12.7155
▁20-6	-12.7155
▁Exo	-12.7155
▁Mur	-12.7156
▁952	-12.7156
▁1,3%	-12.7157
OEM	-12.7157
▁Palm	-12.7157
▁160%	-12.7157
girl	-12.7158
▁1967	-12.7158
▁7-2016	-12.7158
▁Buk	-12.7158
▁13/11	-12.7158
KTNN	-12.7159
▁Carl	-12.7159
▁3-2017	-12.716
▁6/2	-12.716
▁1/8	-12.716
▁Guita	-12.716
rir	-12.716
▁bướm	-12.716
▁Marco	-12.7162
▁Xiao	-12.7162
ẵng	-12.7162
▁10/0	-12.7163
VIII	-12.7164
▁660	-12.7164
▁8,5%	-12.7164
▁HAN	-12.7164
DR	-12.7164
ther	-12.7164
▁28/7/201	-12.7165
ayla	-12.7165
▁428	-12.7166
▁què	-12.7166
berg	-12.7167
HR	-12.7167
Côn	-12.7168
KTXH	-12.7168
▁NVH	-12.7168
▁27.000	-12.7169
▁TKTS	-12.717
▁Parc	-12.717
zi	-12.717
▁Rak	-12.717
holm	-12.717
▁Romania	-12.717
▁49%	-12.717
Gam	-12.7171
▁Good	-12.7171
▁1965)	-12.7172
akr	-12.7172
2/9	-12.7172
▁Khán	-12.7173
▁15/10/20	-12.7173
▁Kyo	-12.7174
EPA	-12.7174
▁Sok	-12.7175
xx	-12.7176
▁16-1	-12.7177
▁(2013	-12.7177
▁Young	-12.7177
▁Acne	-12.7177
▁Fus	-12.7178
▁Pico	-12.718
▁núm	-12.718
▁0243.	-12.718
▁Heli	-12.7181
▁ngươi	-12.7181
▁Imag	-12.7181
▁Magi	-12.7181
4.36	-12.7181
▁BMW	-12.7183
mber	-12.7183
XN	-12.7183
▁7/2	-12.7183
▁Gani	-12.7184
maya	-12.7184
84)	-12.7184
▁17-1	-12.7185
▁Rock	-12.7185
loyd	-12.7185
▁test	-12.7186
▁Viko	-12.7186
cker	-12.7186
mật	-12.7186
ohn	-12.7186
9-12	-12.7188
zzo	-12.7189
▁quặng	-12.719
▁Me	-12.719
▁53/	-12.7191
fia	-12.7192
▁suê	-12.7192
▁Giuộc	-12.7194
▁QP	-12.7195
▁056	-12.7196
▁1960	-12.7196
▁HTV	-12.7196
▁ngớt	-12.7196
rake	-12.7196
hotgirl	-12.7197
▁Penh	-12.7197
▁14%	-12.7197
pus	-12.7197
▁Đẹt	-12.7197
▁1400	-12.7197
▁226	-12.7198
tech	-12.7199
▁Charl	-12.7199
-35	-12.72
▁2-3/	-12.72
Po	-12.7201
▁Maria	-12.7201
▁1983	-12.7201
▁MY	-12.7201
▁tăm	-12.7201
▁Haw	-12.7202
ple	-12.7203
▁carbon	-12.7203
▁Sub	-12.7203
sson	-12.7204
▁Trip	-12.7204
acin	-12.7204
▁4/7	-12.7204
▁(1992	-12.7205
1,2-1,	-12.7206
▁Khuyết	-12.7206
CL	-12.7207
/9/2013	-12.7207
▁1946	-12.7208
yad	-12.7208
TMĐT	-12.7208
▁135/2008	-12.7208
▁Lão	-12.7208
▁Er	-12.7209
▁ngừ	-12.7209
▁Merc	-12.7211
etel	-12.7213
▁thê	-12.7215
▁24,5	-12.7215
▁bike	-12.7217
Giadinh	-12.7218
▁18%	-12.7218
ett	-12.7219
▁1966	-12.7219
▁CMC	-12.7222
flic	-12.7222
▁139	-12.7223
▁Ob	-12.7223
▁Thạc	-12.7224
▁Pou	-12.7226
▁Spi	-12.7226
ĐC	-12.7227
▁1975)	-12.7227
2015	-12.7228
▁chớp	-12.7229
ượu	-12.7229
▁sạc	-12.7229
▁quấ	-12.723
11-2014	-12.7233
WAN	-12.7234
▁Range	-12.7234
▁Phàm	-12.7235
▁Lex	-12.7236
2118	-12.7237
▁24.1	-12.7237
▁05-	-12.7237
▁Hyo	-12.7239
▁Cas	-12.724
▁Kru	-12.724
▁buốt	-12.7241
▁nghiền	-12.7241
▁Fit	-12.7241
▁xướng	-12.7243
bile	-12.7245
▁nẻo	-12.7246
▁249	-12.7247
▁amin	-12.725
▁vót	-12.7251
/3/2018	-12.7253
DAH	-12.7254
▁Súp	-12.7255
org	-12.7256
▁Sãi	-12.7261
▁32/	-12.7263
nằm	-12.7264
▁63%	-12.7264
▁inch	-12.7266
▁vè	-12.7267
▁097	-12.7267
asm	-12.7268
Rada	-12.7269
▁vọt	-12.7269
▁xẩm	-12.727
▁10.2017	-12.7271
SXD	-12.7272
0,77	-12.7273
emer	-12.7275
▁Rô	-12.7276
POS	-12.7276
right	-12.7277
▁6.400	-12.7281
▁Ik	-12.7281
▁Isa	-12.7282
ín	-12.7283
▁(4-	-12.7286
▁gel	-12.7291
▁rít	-12.7296
▁XHH	-12.7296
36	-12.7296
▁24%	-12.7296
▁Góc	-12.7297
estri	-12.7297
▁Sur	-12.7298
▁Nas	-12.7299
▁gò	-12.7299
0-2014)	-12.73
▁MU	-12.73
pers	-12.7304
▁PL	-12.7308
▁Wil	-12.731
▁Hyung	-12.7313
▁trứ	-12.7313
▁124	-12.7315
▁rạc	-12.7315
▁QĐ	-12.7315
ngồi	-12.7316
▁27/12	-12.7317
▁1/10/2017	-12.7318
▁Hỷ	-12.7318
▁Arena	-12.7321
▁chát	-12.7322
▁kìa	-12.7322
▁Geun	-12.7325
▁2.8	-12.7325
▁26-1	-12.7326
▁11/11	-12.7327
769	-12.7329
▁1995,	-12.7329
▁12-2016	-12.733
▁CCHC	-12.7332
▁Cafe	-12.7333
▁Watch	-12.7334
hách	-12.7335
▁LI	-12.7335
▁Homes	-12.7335
▁CBBank	-12.7335
▁mic	-12.7339
Nhi	-12.7339
▁BVMT	-12.734
▁HSMT	-12.7341
zu	-12.7341
2-2016	-12.7341
▁Del	-12.7342
946	-12.7345
▁điếc	-12.7345
▁60/	-12.7347
▁Not	-12.7348
▁41%	-12.7348
▁12-10	-12.7349
▁13-2-201	-12.7349
▁Sea	-12.7352
▁27/11/200	-12.7353
▁VHTT	-12.7354
▁Philipp	-12.7354
▁Đẹp	-12.7356
mu	-12.7356
pal	-12.7357
eve	-12.7358
▁22.6	-12.7358
tonin	-12.736
biết	-12.7362
▁Sửu	-12.7362
▁27-1	-12.7363
▁25/12	-12.7363
geria	-12.7364
▁129	-12.7364
,31%	-12.7364
▁Rich	-12.7366
thì	-12.7369
▁Ini	-12.737
▁Đẩu	-12.7372
▁Comm	-12.7372
▁mèm	-12.7374
▁2010-201	-12.7375
▁Fin	-12.7384
▁quyệt	-12.7387
▁Nanc	-12.7389
▁Intern	-12.7389
▁vẫy	-12.7393
BK	-12.7397
▁Vel	-12.7403
edan	-12.7405
BN	-12.7409
▁17/5	-12.7416
rant	-12.7418
886	-12.742
the	-12.7421
DC	-12.7422
-069	-12.7425
▁sỡ	-12.7426
▁quỷ	-12.7426
▁CQ	-12.7427
▁Sh	-12.7431
12:00	-12.7437
mbank	-12.744
▁15-5	-12.7441
▁Wan	-12.7441
▁rack	-12.7442
▁Yoo	-12.7448
WS	-12.745
97,8	-12.745
▁Toma	-12.746
▁Ôn	-12.746
▁219	-12.7468
hặt	-12.7469
9,6	-12.747
tain	-12.7471
FA	-12.7473
KDL	-12.7478
▁4.1	-12.7478
▁Tel	-12.7479
▁VNĐ	-12.7479
▁HU	-12.748
▁hoóc	-12.7482
▁Bit	-12.7484
▁229	-12.7484
▁Gene	-12.7488
▁Marc	-12.7494
▁cúm	-12.7497
898	-12.7498
▁NO	-12.75
▁Leo	-12.7501
ru	-12.7501
▁Salm	-12.7504
▁toác	-12.7504
205	-12.7506
▁ThS	-12.7507
▁(24	-12.7509
18,	-12.7509
tru	-12.751
▁xuể	-12.7513
ets	-12.7517
ube	-12.7518
10/2014	-12.7519
▁Dài	-12.7519
sốt	-12.752
▁Cent	-12.7524
▁4-1	-12.7526
▁Dis	-12.753
▁Thuộc	-12.753
▁xiêu	-12.753
▁Lou	-12.7548
▁1965	-12.7548
▁Nhãn	-12.7548
▁ní	-12.7551
▁Australian	-12.7551
-9-2017	-12.7552
▁Sắt	-12.7554
▁suông	-12.7555
▁06/201	-12.7564
▁Trâm	-12.7566
▁Hào	-12.7575
CSR	-12.7579
rmati	-12.7586
▁820	-12.759
▁Ex	-12.7591
11/2013/	-12.7591
▁29.1	-12.76
1988)	-12.7601
▁Dra	-12.7602
▁Flo	-12.7604
conom	-12.7605
▁390	-12.7606
▁rô	-12.761
▁Dr	-12.761
▁Dục	-12.7612
NHM	-12.7612
▁109	-12.7612
▁(5/1	-12.7622
SI	-12.7626
▁Pin	-12.763
12)	-12.7639
▁bắ	-12.7646
▁ngùn	-12.7647
.515	-12.7649
uận	-12.7649
▁alt	-12.7656
RI	-12.7658
Eti	-12.7658
05.37	-12.766
▁Den	-12.7663
▁Abd	-12.7664
▁f	-12.7664
▁2023	-12.7667
▁muốt	-12.7668
Ca	-12.7671
TK	-12.7674
▁Deng	-12.7676
▁26/12	-12.7678
and	-12.7688
▁vàn	-12.7689
▁(18	-12.7691
▁Sho	-12.7693
▁gián	-12.77
3/2006	-12.7705
▁Sp	-12.7708
sẽ	-12.7713
hero	-12.7718
oon	-12.772
5-5	-12.772
ride	-12.7722
9/5	-12.7722
9/2009	-12.7725
▁nhạnh	-12.7731
▁Nhim	-12.7735
old	-12.7739
hế	-12.774
/10/2017	-12.774
yun	-12.7742
▁7.000	-12.7743
▁1985)	-12.7743
▁sọc	-12.7745
1.2)	-12.775
▁651	-12.7753
▁nguyền	-12.7758
▁đậy	-12.7763
BMA	-12.7765
even	-12.7767
ral	-12.7773
▁001.	-12.7773
PH	-12.7776
▁nhen	-12.7779
688	-12.7784
ibo	-12.7788
▁7-201	-12.7792
▁hiể	-12.7797
▁chẻ	-12.7799
kip	-12.78
.2.2018	-12.7803
6,5%	-12.781
fa	-12.7812
ove	-12.7818
▁3-1	-12.7821
▁Sec	-12.7821
▁Set	-12.7823
▁89,	-12.7824
▁05/2015	-12.7827
▁094	-12.7828
▁việ	-12.7829
XO	-12.7831
617	-12.7834
135	-12.7841
▁96	-12.7846
TND	-12.7851
3,5%	-12.7854
▁Ell	-12.7856
ĐB	-12.7857
▁HP	-12.7857
umar	-12.786
▁Dẫ	-12.786
ella	-12.7864
7.000	-12.7868
▁bur	-12.7868
▁12-1	-12.7877
hì	-12.7884
one	-12.7896
arri	-12.7899
▁Chib	-12.7912
lanh	-12.7914
oss	-12.7915
-00	-12.7917
BCT	-12.7924
▁24.	-12.7926
▁XHCN	-12.7929
ỏm	-12.7932
▁thoi	-12.7942
▁EVN	-12.7943
880	-12.7953
▁vù	-12.7959
0.000.000	-12.796
▁2003-20	-12.7977
loo	-12.7979
▁chò	-12.798
eu	-12.7982
851	-12.7982
▁cent	-12.7985
▁Ib	-12.799
▁Pay	-12.7994
fl	-12.7998
▁2.5	-12.8
▁ngói	-12.8002
play	-12.8008
▁Deu	-12.8008
uku	-12.8012
▁)	-12.8015
▁Micha	-12.8015
▁IP	-12.8017
▁20-1	-12.8017
thời	-12.8023
KTS	-12.8024
▁Ngự	-12.8026
▁14/1	-12.8028
▁khò	-12.8034
lly	-12.8039
issa	-12.8057
▁1997.	-12.8061
hiểm	-12.8064
▁Hom	-12.8068
▁579	-12.8097
▁26/2/200	-12.8107
▁rả	-12.8114
▁Fed	-12.8116
/01	-12.8123
▁136	-12.813
▁hán	-12.8136
GP	-12.8137
atsu	-12.8144
▁Mich	-12.8146
abell	-12.8147
▁275	-12.8156
▁đúp	-12.8156
▁nhói	-12.8162
▁3)	-12.8162
gna	-12.8164
isi	-12.8165
4/01/2018	-12.8166
tral	-12.817
555.	-12.817
▁you	-12.817
▁thánh	-12.817
ien	-12.8192
▁Sac	-12.8193
▁Manga	-12.8199
▁It	-12.8208
PO	-12.8211
China	-12.8214
12.000	-12.8217
del	-12.8221
▁gáp	-12.8223
-9	-12.8223
TTV	-12.8228
783	-12.8236
▁sứa	-12.824
▁dấm	-12.8246
20-25	-12.8249
107	-12.8252
.6	-12.8253
▁SE	-12.8253
7/11/2014	-12.8264
▁nhẹm	-12.8265
.522	-12.8266
.2017	-12.8267
nity	-12.827
45)	-12.827
▁Avant	-12.8284
chức	-12.8287
267	-12.8305
1/1/2018	-12.8307
▁Dinh	-12.8308
,45	-12.8308
nces	-12.831
▁Most	-12.8311
1,3	-12.8314
ĐTM	-12.8317
5.94	-12.8317
▁25/5/201	-12.8322
2%)	-12.8324
▁89,1	-12.8327
▁Thon	-12.8328
▁lon	-12.8328
enne	-12.8341
ni	-12.8343
▁We	-12.8346
gar	-12.8347
▁2/2017.	-12.835
▁mẫn	-12.8352
ú	-12.8365
/7	-12.8368
540	-12.8377
▁quặc	-12.8389
▁22/	-12.8402
tôi	-12.8403
how	-12.8411
205/	-12.8411
Giá	-12.8414
▁TO	-12.8419
8/2015	-12.8422
▁Doo	-12.8425
enin	-12.8448
Ả	-12.845
533	-12.8455
amaic	-12.8457
▁Ah	-12.8458
8.21	-12.8467
fin	-12.8476
▁EP	-12.8482
▁Rông	-12.8496
▁chớ	-12.8502
▁01/2017	-12.8503
81%	-12.853
2018	-12.8533
hằng	-12.8538
cott	-12.8544
hồi	-12.8546
hoang	-12.8547
/6/2017	-12.8551
▁Cro	-12.8552
-201	-12.8554
▁7/6/201	-12.8555
28-7	-12.8555
icke	-12.8566
-5-2010	-12.8574
ắng	-12.8578
adi	-12.8582
SP	-12.8584
eva	-12.8593
▁min	-12.8603
ak	-12.8609
0/2015/	-12.8611
▁12-	-12.8613
▁MA	-12.8621
0/	-12.8641
idong	-12.8646
▁15/9/201	-12.8649
▁162	-12.865
▁Kath	-12.8651
6.600	-12.8651
,6	-12.8658
▁31/3/201	-12.8664
eda	-12.8668
awa	-12.8679
ae	-12.869
▁22/5	-12.869
1997)	-12.8706
▁1,68	-12.8728
ờn	-12.8728
3,7	-12.8732
▁432	-12.8747
▁stre	-12.8748
hình	-12.8752
nối	-12.8761
NTĐ	-12.8767
▁kiê	-12.8768
▁Gea	-12.8784
▁10-2	-12.8804
LTS	-12.881
▁XX	-12.8812
▁pho	-12.8812
▁Lev	-12.8813
▁ngụt	-12.8815
▁tuôn	-12.8823
▁KS	-12.8841
▁AR	-12.8843
▁2017-	-12.8844
▁Chỉnh	-12.8845
uge	-12.8846
hơi	-12.8847
▁9.20	-12.8848
▁11-1	-12.8856
▁7/	-12.8858
Mu	-12.8872
phu	-12.8878
▁1.05	-12.888
own	-12.8885
▁00	-12.8905
did	-12.8905
tes	-12.891
9.9	-12.8914
▁Nit	-12.8926
▁22-2	-12.8928
oid	-12.8937
huần	-12.894
NVT	-12.8956
7)	-12.896
▁sảo	-12.8977
ts	-12.8979
iru	-12.8986
▁04/	-12.8988
▁nhăn	-12.899
ina	-12.8998
▁56,	-12.9002
KD	-12.901
.6.201	-12.901
▁nơ	-12.9012
ust	-12.9013
,6%).	-12.9014
▁Ti	-12.9023
▁quyế	-12.9027
▁13/5	-12.9027
/7/201	-12.9027
▁tạng	-12.9035
4.08	-12.9037
▁tròng	-12.9038
vàng	-12.9041
▁Lau	-12.9047
996	-12.905
yl	-12.9077
▁Bông	-12.9098
▁Ka	-12.9106
thie	-12.9124
sar	-12.9125
hớ	-12.9125
hư	-12.913
1969)	-12.9145
sen	-12.9145
LĐO	-12.9152
arin	-12.9181
mash	-12.9184
ăk	-12.9222
HCN	-12.923
▁ngủi	-12.923
▁chồ	-12.9234
hầm	-12.9239
165	-12.9244
uồn	-12.9257
8%)	-12.9262
tze	-12.9267
▁Tý	-12.9281
▁rủn	-12.9282
▁fa	-12.9287
eb	-12.9289
▁chướng	-12.9302
▁ràm	-12.9316
04	-12.9329
2,3	-12.9331
AT	-12.934
▁Pra	-12.9341
5.	-12.9342
▁9%	-12.9345
viên	-12.9355
▁OD	-12.936
lla	-12.9363
▁chử	-12.9363
phương	-12.9372
id	-12.9379
US	-12.9382
440	-12.9384
Thả	-12.9402
▁Max	-12.9404
xuất	-12.9418
9.2	-12.9425
▁chà	-12.9432
EA	-12.9443
3%)	-12.9454
▁ĐVT	-12.9458
▁Sin	-12.9474
213	-12.9487
▁17/1/201	-12.949
▁550.000	-12.9491
tài	-12.9497
▁nhô	-12.9497
ator	-12.9501
▁34.	-12.951
▁rạ	-12.9511
▁607	-12.9516
tinh	-12.9516
▁16,5	-12.9518
255	-12.954
Co	-12.9543
▁Đón	-12.9549
▁dẫ	-12.9553
trước	-12.9563
giao	-12.9569
▁929	-12.9569
BR	-12.9573
cấp	-12.9577
▁TW	-12.9577
alib	-12.9579
▁Is	-12.9587
eroi	-12.961
ise	-12.9612
▁Cur	-12.9614
▁615	-12.9618
▁65,	-12.9627
945	-12.9628
1972	-12.9632
itic	-12.9633
usta	-12.9638
▁Ser	-12.9639
▁Ngàn	-12.964
▁7.90	-12.9653
kinh	-12.9664
GK	-12.9702
▁Kai	-12.9703
▁cẩ	-12.9711
ue	-12.9712
▁bon	-12.9719
17/5	-12.9726
pháp	-12.9726
▁Un	-12.9727
ffe	-12.9728
rea	-12.9739
▁Hạn	-12.9747
▁Chanh	-12.975
▁gra	-12.9753
▁Mela	-12.9757
▁29/12/201	-12.9762
▁1/10	-12.9775
▁tiệ	-12.9778
báo	-12.9779
▁mó	-12.9799
▁62.000	-12.9801
▁19-	-12.9801
▁lin	-12.9809
iles	-12.9812
▁1-1,	-12.9814
quyền	-12.9821
44/	-12.9821
ska	-12.9827
richt	-12.9839
arry	-12.9841
▁bank	-12.9842
nom	-12.9852
▁Pan	-12.9857
việc	-12.9867
70.	-12.9883
áu	-12.9891
▁Benc	-12.9893
tình	-12.9898
▁3/1	-12.9898
▁728	-12.9904
rực	-12.991
yme	-12.9924
11-20	-12.9925
orni	-12.9936
▁30-	-12.994
odi	-12.9949
AC	-12.9952
▁Lea	-12.9963
▁mởn	-12.9964
▁Bó	-12.9964
nd	-12.9972
này	-12.9976
giải	-12.9977
▁phơ	-12.9979
hoáng	-12.998
▁Bene	-13.0005
▁miết	-13.0007
▁Tạo	-13.0012
▁chặ	-13.0024
OA	-13.0025
-100	-13.0031
cành	-13.0032
▁rỗi	-13.0038
leg	-13.005
bán	-13.0072
▁286	-13.0074
104	-13.0079
định	-13.0081
▁442	-13.0084
iber	-13.0089
0,5	-13.0092
▁lừng	-13.0097
▁Tho	-13.0118
abe	-13.0121
ef	-13.0142
up	-13.0148
▁3/	-13.0181
▁Vong	-13.0191
nam	-13.0202
ost	-13.021
▁Lie	-13.0218
▁At	-13.0218
iễu	-13.0221
DI	-13.0225
IC	-13.0227
20.	-13.0233
2018,	-13.0234
▁30.	-13.0235
▁24/3	-13.0238
▁917	-13.024
-2-2018	-13.024
▁14-1-	-13.0241
▁9/	-13.0243
▁019.	-13.0248
fee	-13.0257
8-10	-13.0272
-81	-13.0275
▁Yi	-13.0279
Boo	-13.0283
▁1/4/201	-13.0283
530	-13.0292
,3	-13.0292
ANH	-13.0311
▁15.	-13.0315
ree	-13.0327
45%	-13.0327
▁RI	-13.0333
Mừng	-13.0338
UN	-13.034
▁Stat	-13.034
5)	-13.0352
▁Sk	-13.0372
▁Say	-13.038
▁ke	-13.0381
lume	-13.0382
úm	-13.0382
▁tùm	-13.039
-1,	-13.0401
▁3.0	-13.0401
sher	-13.0404
kết	-13.0411
▁huyệ	-13.0416
▁Sch	-13.042
imes	-13.0427
▁chọ	-13.0441
▁Bar	-13.045
tang	-13.0467
134	-13.0507
dàn	-13.0509
564	-13.0517
91.	-13.052
OI	-13.0541
TO	-13.0566
Ope	-13.0595
1.	-13.0595
yaw	-13.0612
/5	-13.0613
▁bõ	-13.0615
▁Hò	-13.0616
ểu	-13.0633
atti	-13.0639
gọn	-13.0645
len	-13.065
KL	-13.065
▁VOV	-13.0659
ex	-13.066
▁cừ	-13.0663
GV	-13.0672
hạ	-13.0677
dor	-13.069
lên	-13.0695
xây	-13.0708
▁30,	-13.0711
ọ	-13.0728
▁sài	-13.0731
ice	-13.0759
họn	-13.0768
-50	-13.0779
moo	-13.0789
▁Ram	-13.0791
ber	-13.0797
▁9/192	-13.0804
661	-13.0829
▁Đê	-13.0836
bản	-13.0845
hồ	-13.0847
447	-13.0859
▁Bla	-13.0859
▁11.85	-13.0878
▁Mod	-13.0885
▁mánh	-13.0906
▁1.34	-13.0919
ave	-13.0934
XP	-13.0946
▁22/6/20	-13.0964
po	-13.0986
....	-13.0998
67%	-13.1008
Quyế	-13.1014
▁Vo	-13.1015
óm	-13.1017
▁8)	-13.1044
▁32,	-13.1051
▁30/10/20	-13.1053
▁hỗm	-13.1054
▁Mor	-13.1069
FO	-13.1073
HU	-13.109
▁10-	-13.1095
▁Woo	-13.1112
▁13-1	-13.1135
đình	-13.1165
cu	-13.1171
Văn	-13.1174
1,5%	-13.1186
▁187	-13.1188
▁gân	-13.119
▁!	-13.1199
/1929	-13.1204
quả	-13.1206
Bron	-13.1213
▁hóc	-13.1215
đạo	-13.1221
SR	-13.1227
▁đềm	-13.1236
ois	-13.1269
▁Thao	-13.1269
08/	-13.1299
hel	-13.13
Net	-13.1307
▁chiên	-13.1315
▁34,2	-13.1324
▁nhẽ	-13.1335
ape	-13.1339
.47	-13.1345
ly	-13.1361
huốc	-13.1362
1/4	-13.1362
về	-13.1379
1908	-13.1383
▁13/	-13.1384
oạc	-13.1386
▁Rộ	-13.14
/3/201	-13.1405
ashin	-13.1406
esp	-13.1407
Bla	-13.1412
ụi	-13.1426
▁21.	-13.1438
hác	-13.144
▁Cor	-13.1461
06/	-13.1469
bel	-13.1474
9/2012	-13.1475
▁Cậ	-13.1478
ồm	-13.1499
▁3.	-13.1506
acc	-13.1507
▁đì	-13.151
02	-13.1526
▁27/7	-13.1557
phí	-13.1585
▁khè	-13.1619
▁149	-13.1622
▁bả	-13.1628
▁Yin	-13.1638
3/	-13.1646
9-	-13.1648
39,	-13.1656
▁3/201	-13.1657
▁Bes	-13.1663
▁Cày	-13.1697
6.1.2018	-13.1698
CTT	-13.1729
gà	-13.1731
HC	-13.1739
1/2/2018	-13.1741
▁12/2015	-13.175
tỷ	-13.1754
▁lũng	-13.1758
rê	-13.1762
uta	-13.1768
uỹ	-13.1786
.64	-13.1797
eres	-13.1803
▁15/2014	-13.1813
9.80	-13.1815
08.	-13.1822
phố	-13.1822
150	-13.1827
ion	-13.1832
oản	-13.1834
FC	-13.1835
▁250.000	-13.184
tới	-13.1856
cô	-13.1861
Europ	-13.1864
ume	-13.1872
2016	-13.1876
729	-13.1878
2-2015	-13.1895
isy	-13.1899
▁Ni	-13.1901
4,9	-13.191
oạch	-13.1916
húc	-13.1923
▁nhú	-13.1939
▁15/8/201	-13.1939
chồng	-13.1953
▁Gián	-13.1958
alani	-13.196
hùng	-13.1971
-2016	-13.1975
▁Pat	-13.1977
▁2015-	-13.1981
▁niêu	-13.1989
sub	-13.2016
.89	-13.2022
▁Rù	-13.2031
chị	-13.2036
Gi	-13.2052
eal	-13.2069
▁18,	-13.2081
9.500	-13.2093
▁điề	-13.2103
1980	-13.211
rấ	-13.2112
Kh	-13.2112
pa	-13.2122
▁31/01/20	-13.2124
▁sớ	-13.2125
ston	-13.2131
7/	-13.2147
iff	-13.2157
1/11/2016	-13.2171
rụ	-13.2172
0/2016/	-13.2184
ake	-13.2187
iri	-13.2192
hảo	-13.2198
bàn	-13.2232
hất	-13.2244
tích	-13.2244
be	-13.2282
▁9-	-13.2283
tor	-13.2293
▁Mis	-13.2295
poly	-13.2303
ngủ	-13.2304
▁thìa	-13.2318
▁Mon	-13.2319
▁đọ	-13.2325
mar	-13.2352
máy	-13.2356
▁9.2	-13.2385
dmi	-13.2395
▁Nur	-13.24
ão	-13.2411
▁sả	-13.2411
oci	-13.2417
▁Mons	-13.2437
event	-13.244
▁21/12	-13.244
4.	-13.2454
110	-13.2464
hỗ	-13.2467
1,6	-13.2483
▁27,	-13.2495
322.000	-13.2528
thủ	-13.2531
sát	-13.2534
rừ	-13.2536
poli	-13.2542
io	-13.255
▁nu	-13.2551
▁Mil	-13.2559
07/2014	-13.2568
.255	-13.2604
AD	-13.2607
mun	-13.2611
of	-13.2614
trọng	-13.2633
trị	-13.2639
▁cp	-13.2645
die	-13.2647
der	-13.2648
choáng	-13.2659
▁26/5	-13.2667
1,2	-13.268
▁5/11	-13.2697
▁nhá	-13.2701
tal	-13.2712
▁ư	-13.272
▁muộ	-13.2729
ù	-13.2749
..	-13.2751
độ	-13.2753
01/2018	-13.2755
▁Tơ	-13.2761
-2018)	-13.2763
▁4.9	-13.2769
nya	-13.2772
▁q	-13.2776
▁8,4	-13.2785
96%	-13.2785
▁Pi	-13.279
hực	-13.2797
▁24/12/201	-13.282
mạnh	-13.2833
▁14-1	-13.2836
cảnh	-13.2838
CI	-13.284
▁04/02	-13.2853
Nội	-13.2854
iểm	-13.2874
▁biế	-13.2894
,4	-13.2905
▁Đợ	-13.2906
85	-13.2912
▁26.1.	-13.293
ity	-13.293
▁nhạ	-13.2933
▁5.7	-13.2947
12/2007	-13.2962
▁8/	-13.2964
▁bậ	-13.2973
VTN	-13.2975
38/	-13.299
ob	-13.2992
loại	-13.2993
VM	-13.3003
bệnh	-13.3027
862	-13.3028
10)	-13.3049
KQ	-13.3052
▁Lanh	-13.3079
cal	-13.309
hĩa	-13.3093
▁hoà	-13.3094
TXH	-13.3097
vốn	-13.3098
▁Bha	-13.3109
56/	-13.3125
▁khiên	-13.3133
hang	-13.3134
384.	-13.3135
-2015	-13.3143
đó	-13.3157
▁Vấ	-13.3162
AV	-13.3163
trả	-13.3168
xét	-13.3174
BOT	-13.3182
▁10-1	-13.3187
tay	-13.319
▁quí	-13.3207
▁17/	-13.3207
▁30/10/	-13.3219
▁Asa	-13.3221
▁DNN	-13.3235
-8-201	-13.3261
▁18.	-13.3267
!'.	-13.3269
đấu	-13.3298
▁rán	-13.3302
ss	-13.3306
▁Lọ	-13.3328
▁18/1	-13.3333
▁nuô	-13.3341
▁12-20	-13.3343
▁nhang	-13.3355
họ	-13.3369
▁14/9/201	-13.3382
rich	-13.3385
Ro	-13.3386
▁Go	-13.3397
chí	-13.3403
or	-13.3408
hùa	-13.3414
▁Dụ	-13.342
▁St	-13.342
ish	-13.3422
etsu	-13.3424
▁Br	-13.3431
6/2017	-13.3442
HL	-13.3443
đặc	-13.3459
hat	-13.3464
▁Trá	-13.3468
rado	-13.3496
▁WT	-13.3497
sơ	-13.3503
đảm	-13.3504
van	-13.3508
▁rú	-13.3515
trạng	-13.353
tana	-13.3534
▁340	-13.3539
lot	-13.3546
4/2/2018	-13.3548
▁12/	-13.3553
đúng	-13.3563
Miche	-13.3599
5/2016	-13.3601
hú	-13.3621
tai	-13.3634
ardin	-13.365
▁pol	-13.3668
3-10	-13.3676
chuyên	-13.3677
nfi	-13.3713
vự	-13.3713
▁Tom	-13.3715
▁521402	-13.3743
bình	-13.3753
216	-13.3772
NM	-13.3778
Dương	-13.3804
elb	-13.3821
xem	-13.3824
nova	-13.3827
lấy	-13.3839
▁phây	-13.3842
3.5	-13.3846
hửng	-13.385
od	-13.3858
nghệ	-13.386
int	-13.387
16.	-13.3882
49,	-13.3886
giả	-13.3902
▁hoi	-13.3906
CST	-13.3907
90	-13.3927
show	-13.3936
▁Wu	-13.3943
shi	-13.3945
▁dả	-13.3952
tiếng	-13.3983
.320	-13.4003
val	-13.4003
2.4	-13.4011
trí	-13.4011
5/1	-13.4017
ỗm	-13.4019
▁01/10	-13.402
plu	-13.4022
vùng	-13.4026
▁30/10	-13.4045
cố	-13.4061
trang	-13.4064
▁Ad	-13.4066
kế	-13.4068
Sơn	-13.4081
▁Kra	-13.4099
FE	-13.4104
luôn	-13.4111
.8	-13.4112
▁vớ	-13.4123
83	-13.4141
uồm	-13.4142
▁đày	-13.4144
▁ngổ	-13.4146
ab	-13.4163
6-5-201	-13.4164
▁Len	-13.4191
Đức	-13.4198
▁ngạ	-13.4215
▁Mid	-13.4226
2014	-13.423
/4/2015	-13.424
onar	-13.4253
.70	-13.4259
rsk	-13.4273
chạy	-13.4278
nuôi	-13.4281
phân	-13.4326
trồng	-13.4358
,9	-13.4359
lao	-13.4359
cuối	-13.4381
▁chù	-13.4382
oke	-13.4382
▁63,	-13.4409
11,	-13.4414
▁Bri	-13.4415
-2014	-13.4429
tuyến	-13.443
góp	-13.4432
SD	-13.4437
358	-13.4445
2.0	-13.4504
phiên	-13.4512
▁nhọ	-13.4518
▁Sal	-13.4523
▁Ev	-13.454
▁Game	-13.4543
ney	-13.4548
Nhưng	-13.4553
tz	-13.4557
7/8/201	-13.459
127	-13.4604
bita	-13.4611
▁31/8/201	-13.4613
▁Wis	-13.4624
giậ	-13.4628
▁110,	-13.4632
5.9	-13.4643
1/3/2018	-13.4644
▁Mư	-13.4644
avel	-13.4659
,09	-13.4673
▁14/	-13.4675
rnes	-13.4682
2017	-13.4684
Gia	-13.4694
HK	-13.4701
▁HC	-13.4703
Bi	-13.4705
ghề	-13.4715
972	-13.4716
81	-13.4718
ello	-13.4721
5:00	-13.4723
Đại	-13.4729
▁485	-13.4729
200.000	-13.4762
đứng	-13.4764
▁12-2	-13.477
eman	-13.4777
Phương	-13.4783
▁05/	-13.4798
▁Sả	-13.4813
300	-13.482
98%	-13.4823
▁Ag	-13.4834
▁Had	-13.4841
▁0,8	-13.4843
▁Khổ	-13.4843
mục	-13.4846
▁21/8	-13.4848
Tài	-13.4856
0,2	-13.4867
tầng	-13.487
ces	-13.4878
▁Ange	-13.4879
thể	-13.4882
▁TRU	-13.4884
▁14.000	-13.4907
nce	-13.4909
uri	-13.4913
ara	-13.4929
▁225	-13.4952
lại	-13.4953
▁miên	-13.4971
chiều	-13.4976
▁Sá	-13.4991
AQ	-13.4999
khả	-13.5
enta	-13.5002
137	-13.5007
Chí	-13.5018
2015/	-13.502
▁VC	-13.5022
▁HT	-13.5024
Châu	-13.5033
chơi	-13.5055
lệ	-13.5057
▁loạ	-13.507
▁thố	-13.5072
▁10/10	-13.5075
▁Wel	-13.5076
▁Ir	-13.508
miễn	-13.5086
mắt	-13.5087
859	-13.5089
mil	-13.5095
2.3	-13.5106
▁06/	-13.5121
ebe	-13.5122
▁Mos	-13.513
hựa	-13.5136
OM	-13.5137
đồ	-13.5137
truy	-13.5153
bay	-13.5167
ướt	-13.5175
409	-13.5176
▁rè	-13.5179
vọng	-13.5183
biên	-13.5195
phút	-13.52
▁8/5/201	-13.52
TAND	-13.5209
thần	-13.521
0)	-13.5213
bell	-13.5219
▁Tà	-13.5223
phóng	-13.5225
Hùng	-13.5237
Thế	-13.5239
nline	-13.524
lis	-13.5242
957	-13.5251
239	-13.5277
▁How	-13.5278
phê	-13.528
mẫu	-13.5289
xa	-13.5295
Như	-13.5299
phù	-13.5301
Linh	-13.5309
khoa	-13.5311
tù	-13.5314
quý	-13.5336
▁đụn	-13.5337
độc	-13.5348
ye	-13.5351
▁04/2	-13.5355
▁199	-13.5384
KV	-13.5411
bước	-13.5413
edia	-13.5424
▁284	-13.5427
mở	-13.5441
hạnh	-13.5455
iễn	-13.546
09,	-13.547
Thứ	-13.5475
bồi	-13.5484
▁mị	-13.5505
uỷ	-13.5511
▁(85	-13.5515
▁03/0	-13.5526
ines	-13.553
Hai	-13.5533
Đà	-13.5533
▁Tào	-13.5533
rgi	-13.5546
▁(9/	-13.5554
Cảnh	-13.5555
car	-13.5564
▁Hơ	-13.5564
tá	-13.5566
7.200	-13.5572
2,7	-13.5585
▁liê	-13.5592
▁Vas	-13.5594
sửa	-13.5609
màu	-13.5622
Tiên	-13.5625
▁ló	-13.563
Thủy	-13.5631
▁Mas	-13.5638
sạch	-13.5639
39%	-13.564
▁Bal	-13.5641
DM	-13.5641
▁Tae	-13.5641
▁Ron	-13.5643
▁15/8	-13.5649
lăn	-13.5649
ngoại	-13.5654
Được	-13.566
ọp	-13.5665
Hóa	-13.5668
wei	-13.5671
Pháp	-13.5674
▁Nov	-13.5677
aro	-13.5678
thắng	-13.568
hộp	-13.5681
thúc	-13.5681
▁ngh	-13.5684
bánh	-13.5692
illar	-13.5696
que	-13.5707
but	-13.5708
Định	-13.5719
Thu	-13.572
▁Bro	-13.5722
Só	-13.5725
aba	-13.5725
trời	-13.5725
Nhữ	-13.5729
hũ	-13.5738
chặt	-13.5738
▁Kal	-13.5744
▁SS	-13.5744
Vụ	-13.5749
▁5,3	-13.575
▁QB	-13.5761
Thạnh	-13.5769
Falla	-13.5772
4/2009	-13.5782
quen	-13.5783
▁1.60	-13.5783
▁Mik	-13.5793
lái	-13.5795
duy	-13.5803
Thường	-13.5809
thoát	-13.5816
chắc	-13.582
sợ	-13.5828
dạy	-13.5829
01/	-13.583
▁App	-13.5833
▁chước	-13.5838
amo	-13.5839
vers	-13.584
/02	-13.5844
hau	-13.5847
ole	-13.585
rào	-13.5854
chứ	-13.5859
▁Swa	-13.5862
Ôi	-13.5867
cập	-13.5868
▁nguyệ	-13.588
Chị	-13.5885
▁oli	-13.5885
AH	-13.5888
cháy	-13.5889
7-	-13.5889
947	-13.5893
hiếm	-13.5893
607	-13.5898
vườn	-13.5899
wa	-13.5902
Lý	-13.5904
Mạnh	-13.5904
bãi	-13.5905
▁Abde	-13.5906
▁nghiê	-13.5911
kém	-13.5914
▁9.6	-13.5915
sta	-13.5915
vũ	-13.5917
Thực	-13.5921
▁(199	-13.5923
▁154	-13.5924
▁29/12	-13.5926
ặ	-13.5927
▁BQ	-13.5944
▁37.	-13.5944
anz	-13.5946
tu	-13.5956
350	-13.5958
win	-13.5959
quỹ	-13.5967
▁Hous	-13.5971
/4/200	-13.5974
Kiên	-13.5974
Thương	-13.5976
▁31/12	-13.5979
9,3%	-13.5982
đen	-13.599
▁64,	-13.5994
xóm	-13.5994
▁pen	-13.6
Sáng	-13.6005
▁Than	-13.6008
Kết	-13.6011
▁2.48	-13.6015
▁167/	-13.6016
thất	-13.6022
isco	-13.6028
AB	-13.6029
ủn	-13.6035
đợt	-13.604
▁Bú	-13.6042
Phan	-13.6045
▁12/201	-13.6045
▁HK	-13.6047
sổ	-13.6048
132	-13.605
Quân	-13.6058
rs	-13.6062
tạm	-13.6062
ana	-13.6063
lừa	-13.6064
ony	-13.6081
GS	-13.6084
51	-13.6096
HĐXX	-13.6104
Huy	-13.6106
Biên	-13.6107
ieu	-13.6108
Lan	-13.611
dây	-13.611
▁93	-13.6113
olli	-13.6113
ft	-13.6118
Đào	-13.6119
Hữu	-13.612
Phật	-13.6122
thao	-13.6127
,1	-13.6131
dao	-13.6138
▁Xả	-13.6153
Điện	-13.6158
trích	-13.6164
Thọ	-13.6178
035	-13.618
Syria	-13.6187
đập	-13.6194
1/2013/	-13.6198
Họ	-13.62
▁QC	-13.6202
địch	-13.6206
llar	-13.6206
▁25,7	-13.6208
tối	-13.6209
già	-13.6212
phấn	-13.6216
▁Wo	-13.6216
Tuất	-13.622
▁17.5	-13.6224
khán	-13.6227
2/2015/	-13.6237
BHXH	-13.6243
hoàng	-13.6255
18.	-13.6256
khóc	-13.6258
hòa	-13.6263
▁Tran	-13.6268
nez	-13.6268
Quỳnh	-13.6269
3/1	-13.6269
tuyệt	-13.6269
Phụ	-13.628
ifi	-13.628
▁Webs	-13.6281
39.	-13.6284
lược	-13.629
ook	-13.63
đức	-13.6301
Tú	-13.6302
▁Tan	-13.6303
▁Pala	-13.6304
đám	-13.6308
bắn	-13.6309
dậy	-13.6309
▁Cub	-13.6312
lan	-13.6324
666	-13.6326
▁Alan	-13.6335
Park	-13.6335
lắp	-13.6339
ệm	-13.6342
▁15-2	-13.6345
xưa	-13.6357
Ha	-13.6358
VP	-13.6365
WT	-13.6365
cắt	-13.637
loạn	-13.6372
Hiền	-13.6376
Kiều	-13.6376
▁181	-13.6379
Apple	-13.6382
▁thuậ	-13.6382
giật	-13.6388
▁Lib	-13.6391
ser	-13.6404
2016/	-13.6408
mềm	-13.641
lấn	-13.6411
bảng	-13.6416
Lào	-13.6417
Cả	-13.6418
▁Georg	-13.642
Cao	-13.6422
▁5/201	-13.6423
nhan	-13.6427
▁TCT	-13.6429
chửi	-13.6433
Toyota	-13.6434
ada	-13.6438
Xe	-13.6441
log	-13.6445
treo	-13.6457
bão	-13.6457
990.	-13.6457
niên	-13.6459
PS	-13.6461
ars	-13.6463
dọn	-13.6465
2.2018	-13.6465
Lai	-13.6467
tràn	-13.6488
Thụy	-13.6492
Mới	-13.6495
▁mận	-13.6502
res	-13.6505
▁Gat	-13.6516
HTX	-13.6517
FT	-13.6524
aw	-13.6526
Bé	-13.6531
10-2017	-13.6537
chấm	-13.6538
TCTD	-13.6539
zabe	-13.6539
BĐS	-13.6541
355	-13.6544
NCB	-13.6546
Peter	-13.6547
II	-13.6551
HĐQT	-13.6551
béo	-13.6552
libe	-13.6555
ẹ	-13.6555
enci	-13.6557
face	-13.6558
KCN	-13.6562
ite	-13.6567
VKSND	-13.6568
bám	-13.6575
New	-13.6577
gia	-13.6582
PVC	-13.6582
Tam	-13.6583
KS	-13.6584
Vietlott	-13.6587
Bồ	-13.6588
THA	-13.6589
nhắc	-13.6591
1998	-13.6592
đuối	-13.6592
▁11/4	-13.6593
Giới	-13.6596
forma	-13.6598
ă	-13.66
▁Lis	-13.6601
Agribank	-13.6603
217	-13.6605
Viettel	-13.6606
ppe	-13.6607
VR	-13.6608
The	-13.6611
Quả	-13.6621
Es	-13.6627
Ar	-13.6627
Mart	-13.6627
QS	-13.6628
soạn	-13.663
Ocean	-13.663
Thù	-13.6632
▁8/5	-13.6638
bón	-13.6644
VHTTDL	-13.6644
Indonesia	-13.6645
12-10	-13.6645
armi	-13.6648
VRG	-13.665
Canada	-13.6653
CBBank	-13.6654
Watch	-13.6655
hormon	-13.6657
Barca	-13.6658
Rich	-13.6658
Cafe	-13.6659
VTV	-13.6659
CCHC	-13.6659
sạn	-13.6661
quỷ	-13.6662
Lee	-13.6663
Đẹp	-13.6663
BVMT	-13.6665
Lệ	-13.6666
lf	-13.6666
Homes	-13.6666
HSMT	-13.6667
▁(44	-13.6668
▁02/201	-13.6669
LD	-13.6669
.384	-13.6669
Pre	-13.6669
Sanchez	-13.6672
VietinBank	-13.6673
Vietinbank	-13.6674
Thomas	-13.6674
HAGL	-13.6674
2005	-13.6677
CIT	-13.6678
VNCB	-13.6678
Center	-13.6681
Robert	-13.6681
Pleiku	-13.6681
TNDN	-13.6682
cabin	-13.6682
FDI	-13.6683
Chile	-13.6684
Cloud	-13.6684
41%	-13.6686
rata	-13.6686
LĐTB	-13.6687
HOSE	-13.6688
Arena	-13.6689
▁1995	-13.669
Win	-13.669
7/2017	-13.669
IF	-13.6691
BQL	-13.6691
Khuê	-13.6692
Dĩ	-13.6692
Soi	-13.6693
1968	-13.6694
AVG	-13.6696
GDP	-13.6696
▁5/1/201	-13.6696
CHCN	-13.6696
▁QA	-13.6697
27/	-13.6697
34/	-13.6699
▁4.8	-13.6699
comment	-13.67
2013	-13.6701
Roma	-13.6701
Bích	-13.6702
iờ	-13.6702
Nhiệm	-13.6703
bìa	-13.6704
CCL	-13.6704
787	-13.6706
GIA	-13.6706
Hợi	-13.6709
Web	-13.671
ghế	-13.671
TTCK	-13.671
NTM	-13.6711
▁4/5	-13.6714
Tiệp	-13.6715
1979	-13.6715
▁Bell	-13.6722
▁(10	-13.6723
866	-13.6725
Giấ	-13.6727
hước	-13.6727
tiểu	-13.6728
EU	-13.6729
VK	-13.673
Car	-13.6732
112	-13.6734
rds	-13.6739
osh	-13.6744
▁Tươ	-13.6745
bar	-13.6745
Art	-13.6745
2.77	-13.6745
050	-13.6748
649	-13.675
▁30/6	-13.6752
Fl	-13.6752
146	-13.6752
▁99/	-13.6752
14,	-13.6758
HA	-13.6759
/7/20	-13.6759
QSM	-13.6761
isc	-13.6765
KP	-13.6768
LI	-13.6771
Thoa	-13.6773
8-7	-13.6776
▁3.8	-13.6778
lore	-13.6779
▁Kell	-13.678
1985)	-13.6781
Đỏ	-13.6781
▁23.6	-13.6788
626	-13.6792
rơ	-13.6793
-2014)	-13.6797
Lọ	-13.6799
Siêu	-13.6802
utin	-13.6808
Big	-13.681
05/2015	-13.6812
sso	-13.6813
▁8/11	-13.6814
biếu	-13.6815
App	-13.6816
kí	-13.6826
Táo	-13.6829
Tự	-13.6829
hiêu	-13.683
3,6	-13.6831
Quan	-13.6835
06.	-13.6837
0.5	-13.6837
CĐT	-13.6838
10.2017	-13.6838
1,9	-13.6839
▁25/5	-13.6842
lọ	-13.6842
Du	-13.6844
lles	-13.6845
ash	-13.6845
giây	-13.6848
Cỏ	-13.6855
1/7/2014	-13.6856
travel	-13.6856
1/3	-13.6868
22/5	-13.6869
đê	-13.6871
sét	-13.6872
bet	-13.6873
Cty	-13.6874
yok	-13.6874
We	-13.6876
1983)	-13.6881
MM	-13.6885
101	-13.6886
bào	-13.6887
Rin	-13.6888
cơm	-13.6893
▁Vie	-13.6897
Cố	-13.6899
xách	-13.6901
oxy	-13.6901
Kong	-13.6903
rủ	-13.6909
mari	-13.691
Ad	-13.6913
▁Har	-13.6917
kham	-13.6921
Info	-13.6922
gạch	-13.6924
▁1.83	-13.6929
▁8.0	-13.6929
-90	-13.6932
Op	-13.6933
repo	-13.6935
▁19/2	-13.6936
63%	-13.6937
ulle	-13.6937
Tin	-13.6941
tiễn	-13.6942
ệch	-13.6944
166	-13.6945
ihar	-13.695
▁vâ	-13.695
blo	-13.6954
954	-13.6958
Tình	-13.6959
cận	-13.696
▁472	-13.6966
▁12,8	-13.697
▁203	-13.697
ẹp	-13.6971
lite	-13.6974
cấu	-13.6976
▁3/3	-13.6977
than	-13.6982
▁Philip	-13.6983
urs	-13.6989
BM	-13.699
Kho	-13.6992
CBC	-13.6994
ẵ	-13.7
KN	-13.7004
▁140/	-13.7005
▁gạ	-13.7008
Fan	-13.7008
▁thán	-13.701
risto	-13.701
4/6/201	-13.7011
Thao	-13.7013
rở	-13.7016
carb	-13.7018
Má	-13.702
0-80	-13.702
rtu	-13.702
môn	-13.7021
nstein	-13.7021
otgirl	-13.7023
harle	-13.7023
nhắn	-13.7026
Bảy	-13.7027
▁18.1	-13.7028
▁1/9/	-13.7032
ocket	-13.7032
nghẹn	-13.7033
ila	-13.7039
96.2	-13.704
Le	-13.7045
▁15.0	-13.7045
▁161/	-13.7045
5,7	-13.7045
▁Om	-13.7048
wan	-13.7049
est	-13.7049
HVN	-13.7051
nstei	-13.7052
Sao	-13.7052
▁diệ	-13.7052
▁1/9	-13.7061
▁Kiê	-13.7062
▁15/9	-13.7062
Ngh	-13.7063
Sara	-13.7063
aghan	-13.7064
biz	-13.7065
Anni	-13.7066
739	-13.7066
▁24/11	-13.7067
105	-13.7068
rẻo	-13.7068
phone	-13.707
ragon	-13.7072
286	-13.7075
▁Sona	-13.708
▁You	-13.7081
▁24/0	-13.7083
▁XVI	-13.7084
rain	-13.7084
▁rằn	-13.7087
▁lãn	-13.7089
rand	-13.709
▁11,5	-13.7091
▁58/201	-13.7093
cap	-13.7094
▁Ima	-13.7096
arbon	-13.7097
006.	-13.7097
ontainer	-13.7098
KG	-13.71
-10-201	-13.71
9-20	-13.71
RL	-13.7101
Brig	-13.7102
tầm	-13.7102
cú	-13.7103
ils	-13.7103
ANT	-13.7104
984	-13.7104
▁Ibra	-13.7108
▁vườ	-13.7109
rnab	-13.7109
2,4	-13.711
553	-13.7112
kov	-13.7113
Ge	-13.7115
song	-13.7116
382	-13.712
UB	-13.7122
ưỡn	-13.7123
dle	-13.7124
▁Chelse	-13.7125
11.8	-13.7125
icol	-13.7126
graph	-13.7127
▁1/1/201	-13.7128
▁biê	-13.7128
ogistics	-13.713
▁10/2	-13.7131
araoke	-13.7131
▁5.0	-13.7132
▁Petr	-13.7132
▁Goo	-13.7132
ailymail	-13.7134
movic	-13.7135
Lô	-13.7135
993	-13.7135
wards	-13.7135
▁UBMT	-13.7135
▁Champion	-13.7136
▁Gen	-13.7136
▁logistic	-13.7136
▁Ukrain	-13.7136
olero	-13.7136
oogle	-13.7136
▁Capita	-13.7136
euters	-13.7136
himov	-13.7137
lội	-13.7137
▁CNQSD	-13.7137
8/4/201	-13.7137
▁4-4-2	-13.7138
▁5/2/20	-13.7138
▁Abra	-13.7138
HĐX	-13.7138
cortiso	-13.7138
GENCO	-13.7138
utsal	-13.7138
EIT	-13.7138
8888888	-13.7138
!!!	-13.7138
ATVS	-13.7138
tics	-13.7139
▁Luka	-13.7139
ooker	-13.7139
akis	-13.7139
Fone	-13.7139
2/6/2	-13.7139
▁Victor	-13.714
▁650	-13.714
CFT	-13.714
▁Arsen	-13.714
ubai	-13.7141
ctoria	-13.7141
▁corti	-13.7142
onal	-13.7142
▁10.0	-13.7142
ephe	-13.7142
00.00	-13.7143
eadli	-13.7143
ribank	-13.7143
▁Nguy	-13.7143
TE	-13.7144
HPN	-13.7145
▁Philippin	-13.7145
▁WW	-13.7145
▁Champ	-13.7145
hamed	-13.7145
hrome	-13.7146
rime	-13.7146
▁Toà	-13.7146
▁111/	-13.7147
bame	-13.7147
wor	-13.7147
ovic	-13.7148
omania	-13.7148
▁ĐTQ	-13.7148
Hami	-13.7148
omedo	-13.7149
thê	-13.7149
ilton	-13.715
rvey	-13.715
▁lù	-13.715
SDĐ	-13.715
sex	-13.715
ret	-13.7151
▁14001	-13.7151
▁Will	-13.7151
onnect	-13.7151
rvar	-13.7152
24/01	-13.7152
0.00	-13.7152
▁Maas	-13.7154
341	-13.7154
▁3.80	-13.7154
KTN	-13.7155
woo	-13.7155
▁13/6	-13.7155
iller	-13.7155
llol	-13.7156
ambo	-13.7156
urge	-13.7157
1-2015	-13.7157
ovie	-13.7158
▁Conf	-13.7158
▁Rese	-13.7158
▁BTCC	-13.7158
▁07:001	-13.7159
ADS	-13.7159
ẵn	-13.7159
▁nhũn	-13.7159
▁13.0	-13.716
▁Kề	-13.716
▁21/2	-13.7161
opin	-13.7162
0-100	-13.7162
NVC	-13.7163
GI	-13.7163
02/3	-13.7164
lez	-13.7165
itle	-13.7165
CSĐ	-13.7165
isten	-13.7166
chte	-13.7166
▁Sơ	-13.7167
pple	-13.7168
etoo	-13.7169
pany	-13.7169
▁Rob	-13.717
▁VII	-13.717
▁Petro	-13.717
vá	-13.7171
▁4.5	-13.7171
Chò	-13.7171
▁024	-13.7173
▁7-2	-13.7173
ograph	-13.7173
omba	-13.7173
TNT	-13.7174
De	-13.7174
-9-201	-13.7175
AA	-13.7176
erlin	-13.7176
mad	-13.7176
DE	-13.7177
ANP	-13.7178
▁30/9	-13.7179
adio	-13.7179
bab	-13.718
▁(90	-13.7183
▁NAT	-13.7183
-2016)	-13.7183
ury	-13.7184
10/10/	-13.7184
omment	-13.7184
▁6/4	-13.7187
▁12.2	-13.7187
nzy	-13.7189
obb	-13.7192
Thân	-13.7192
353	-13.7192
dwo	-13.7194
anci	-13.7195
lố	-13.7196
▁Sil	-13.7196
hẩu	-13.7198
▁Lự	-13.7198
7-2018	-13.7199
martphone	-13.72
ppo	-13.7201
▁Phap	-13.7201
-06	-13.7205
iku	-13.7209
▁Far	-13.721
howbiz	-13.7211
38.	-13.7212
▁Dav	-13.7212
ortm	-13.7214
Sco	-13.7214
lexi	-13.7215
▁6-2	-13.7216
1/10/201	-13.7221
por	-13.7222
lâ	-13.7223
▁Cre	-13.7223
yeong	-13.7223
0-60	-13.7224
2.59	-13.7225
TTG	-13.7226
otten	-13.7228
mmun	-13.7228
▁Ava	-13.7228
mex	-13.7229
bal	-13.723
2-2-	-13.7232
ull	-13.7232
▁5,9	-13.7235
chol	-13.7235
BO	-13.7235
6/1	-13.7236
tland	-13.7236
▁18/2	-13.7237
LX	-13.7238
VA	-13.7239
19/	-13.724
esta	-13.7241
▁Chừ	-13.7243
1986	-13.7247
979	-13.7248
6/6	-13.7253
ior	-13.7259
▁Silv	-13.726
irm	-13.726
arcia	-13.7261
ump	-13.7261
▁VHT	-13.7262
▁Tí	-13.7265
▁Ste	-13.7266
▁Tec	-13.7268
▁lươn	-13.7274
975	-13.7276
sse	-13.7278
THT	-13.7279
▁đẹ	-13.7279
-1)	-13.728
VNS	-13.728
sine	-13.7283
thoi	-13.7288
▁13.	-13.7289
▁8/2	-13.729
▁3/4	-13.729
▁Xứ	-13.729
83)	-13.7292
6,0	-13.7294
TNN	-13.7295
▁12.0	-13.7296
nhờ	-13.7296
Mau	-13.7296
apoli	-13.7297
copy	-13.7298
itsu	-13.7306
422	-13.7306
986	-13.7308
hiễm	-13.7315
oor	-13.732
raq	-13.7322
chw	-13.7324
ente	-13.7325
Arn	-13.7327
6,3	-13.7328
905	-13.733
2/3	-13.733
▁29/11	-13.7336
0-2017	-13.7337
▁12/7	-13.7338
▁mí	-13.7339
pad	-13.7339
telli	-13.7342
▁rượ	-13.7349
ters	-13.7352
▁Bab	-13.7359
rma	-13.7363
rợ	-13.7364
▁06:	-13.7365
ompe	-13.7366
hen	-13.7366
Vệ	-13.7366
▁1.12	-13.7369
fon	-13.7374
17-20	-13.7376
18/	-13.7379
MĐ	-13.738
rock	-13.738
sto	-13.7381
▁15/2	-13.7383
7/12/2016	-13.7384
▁Eri	-13.7384
mani	-13.7386
▁221	-13.7388
ore	-13.7391
Rea	-13.7392
▁Chơ	-13.7393
ian	-13.7393
tford	-13.74
ards	-13.7401
BKT	-13.7403
▁âu	-13.7405
▁183	-13.7413
anal	-13.7417
▁(33	-13.7418
▁133	-13.742
Sang	-13.7421
88/	-13.7422
▁26.0	-13.7424
▁Dre	-13.743
▁Vĩ	-13.7439
▁vó	-13.7441
ndre	-13.7442
▁Trú	-13.7443
alk	-13.7448
cười	-13.7448
17/20	-13.7456
Gr	-13.7462
Bao	-13.7463
▁15/	-13.7464
▁5/12	-13.7464
▁dâ	-13.7468
989	-13.7469
Say	-13.747
ngựa	-13.7472
▁Pete	-13.7472
005	-13.7476
▁Uni	-13.7477
▁VF	-13.7482
Phone	-13.7483
293	-13.7484
/1/	-13.7489
mir	-13.7491
▁Oan	-13.7492
▁(100	-13.7493
▁Bern	-13.7494
lant	-13.7495
/6/201	-13.7502
▁Pho	-13.7503
▁6,5	-13.7506
Wh	-13.7508
▁001	-13.7508
▁Wen	-13.7509
▁8.1	-13.7514
săn	-13.7518
ofi	-13.7519
▁TI	-13.752
/2/2018)	-13.7521
cre	-13.7521
5/7	-13.7525
edona	-13.7527
genc	-13.7529
▁Atla	-13.753
LA	-13.753
erp	-13.7532
▁45/	-13.7533
▁(22	-13.7534
80-	-13.7538
▁206	-13.7542
19.8	-13.7545
-40	-13.7546
▁cuồn	-13.7548
4-11	-13.7553
into	-13.7556
pard	-13.7557
cát	-13.7562
oka	-13.7579
▁Av	-13.7582
chừng	-13.7588
▁334	-13.7589
ren	-13.7595
unsu	-13.7603
▁Fay	-13.7608
nhầm	-13.7616
!..	-13.7617
chê	-13.7621
▁XL	-13.7621
press	-13.7621
850	-13.7622
5-2017	-13.7625
▁dé	-13.7629
olo	-13.7634
azet	-13.7638
▁Hyu	-13.764
▁46/	-13.764
▁EX	-13.7644
NA	-13.765
▁12/12	-13.7651
obe	-13.7653
▁Pre	-13.7654
cor	-13.7662
HB	-13.7664
0210	-13.7676
▁207	-13.7678
bol	-13.768
nguy	-13.7683
▁kền	-13.7691
▁Vietra	-13.7691
▁Inf	-13.7692
▁vắn	-13.7695
dem	-13.7695
▁Be	-13.7695
76,	-13.7697
▁Sup	-13.7708
▁Oa	-13.7718
▁mm	-13.7722
erra	-13.7725
▁Fu	-13.7729
9/2016	-13.7733
dro	-13.7735
0000	-13.7738
Vàng	-13.7741
il	-13.7748
▁face	-13.7751
DĐT	-13.7752
▁BI	-13.7753
▁bẫ	-13.7761
LB	-13.7762
▁Peter	-13.7767
▁gạc	-13.7779
▁NI	-13.7785
82	-13.7785
▁chồn	-13.7786
asha	-13.7791
▁Io	-13.7795
92)	-13.7811
enic	-13.7813
stay	-13.7824
onte	-13.7824
mm	-13.7827
ềnh	-13.7831
erest	-13.7831
Đất	-13.7832
▁17,	-13.784
▁Mer	-13.7843
nút	-13.7843
mét	-13.7844
▁lườn	-13.785
tox	-13.7866
▁Đọ	-13.7866
ứu	-13.7869
/4	-13.7884
rdia	-13.7889
Chất	-13.7889
▁tiế	-13.7904
tad	-13.7907
3.78	-13.7916
Da	-13.7919
▁08/	-13.7921
▁Fort	-13.7921
ort	-13.7925
ranh	-13.7929
ườ	-13.794
1.9	-13.7945
1/10/2017	-13.7957
/2018)	-13.7976
Hap	-13.7977
80/	-13.7991
plo	-13.7993
▁Mart	-13.8
cop	-13.8
▁Manc	-13.8002
▁603	-13.8006
ile	-13.8012
3-2	-13.802
oma	-13.8021
▁FT	-13.804
Nap	-13.8041
▁Lợ	-13.8044
sản	-13.805
▁Mad	-13.8054
▁Com	-13.8058
MC	-13.8066
ica	-13.8073
.1)	-13.8078
▁7/1	-13.8079
▁HI	-13.8079
999	-13.8081
book	-13.8085
6-6	-13.8099
iano	-13.811
tắm	-13.8112
349	-13.8117
str	-13.8126
lim	-13.8127
12-2016	-13.8128
▁3,7	-13.8136
▁(11	-13.8155
ley	-13.8156
live	-13.8166
nov	-13.8167
THC	-13.8168
20,7	-13.8173
▁2017)	-13.8176
ebsite	-13.8176
▁1.85	-13.8184
mái	-13.8186
▁10.	-13.8189
gấp	-13.8189
▁26/2	-13.8195
▁ồ	-13.8197
cros	-13.8201
inch	-13.8202
▁Ge	-13.8204
epti	-13.8204
lành	-13.8205
olm	-13.8206
sy	-13.8208
▁2.19	-13.8214
DĐ	-13.8215
▁Pet	-13.8216
9/4/200	-13.8222
Exp	-13.8229
Ri	-13.8237
▁Val	-13.8239
phốt	-13.8254
966	-13.8255
gào	-13.8258
67/	-13.8258
haha	-13.8283
▁Hou	-13.8309
met	-13.8311
3.48	-13.8329
Nên	-13.8335
yli	-13.8339
nghi	-13.8345
▁Lùn	-13.8348
4;	-13.8348
opa	-13.8349
5/1/2018	-13.835
▁bụ	-13.835
rif	-13.8351
97,	-13.8353
47,	-13.8356
enn	-13.8361
Tới	-13.8365
▁Khan	-13.8379
ico	-13.8391
18)	-13.8391
▁Xo	-13.8395
chướng	-13.8405
sda	-13.8417
29-	-13.8418
3,8	-13.8421
▁nhằng	-13.8424
SX	-13.8439
alc	-13.8439
▁TG	-13.8441
Qa	-13.8442
eta	-13.8443
rừng	-13.8447
▁Enr	-13.8458
sea	-13.8467
gen	-13.8487
15)	-13.8493
thận	-13.8513
mát	-13.855
cin	-13.8554
ama	-13.8557
▁17/0	-13.8559
▁217	-13.8567
lig	-13.858
vin	-13.8584
cle	-13.8585
Cl	-13.859
▁Bel	-13.8614
bấ	-13.8616
rk	-13.862
QLD	-13.8622
995	-13.8645
2017/	-13.8667
▁ạ	-13.8674
▁16.	-13.8682
cứng	-13.8691
▁6/	-13.8696
▁Emi	-13.8699
▁mài	-13.8717
rina	-13.8718
▁nấ	-13.8734
lico	-13.8741
70%	-13.8742
678	-13.8748
tou	-13.8754
side	-13.8766
▁há	-13.8772
▁VK	-13.8777
▁Hig	-13.8805
anking	-13.8806
▁tru	-13.8833
▁205	-13.8834
uột	-13.8841
▁Dai	-13.885
há	-13.8855
mum	-13.8878
05.	-13.8889
Hy	-13.8898
▁64/20	-13.8899
ute	-13.8903
99/	-13.8904
9/200	-13.891
▁PG	-13.8928
980	-13.8932
36,	-13.8933
▁22/12/201	-13.8949
Mang	-13.8978
▁quậ	-13.8987
6.88	-13.8989
09/	-13.9003
▁dong	-13.9032
▁(6	-13.9033
ais	-13.904
▁Băn	-13.9043
mặc	-13.9047
rdon	-13.9055
4/2015	-13.9068
cuộ	-13.9072
4/9/2017	-13.9079
7/12/201	-13.908
enal	-13.9085
ucat	-13.9106
rl	-13.912
▁1,6	-13.912
0-30	-13.9124
6/2014	-13.914
▁Mic	-13.9143
▁100-	-13.9149
gửi	-13.9156
sep	-13.9161
23-	-13.9164
VHTT	-13.9167
chán	-13.9171
ẽo	-13.9192
▁vấ	-13.9208
hập	-13.9216
▁hợ	-13.922
nei	-13.9223
913	-13.9241
▁BM	-13.9257
03.	-13.9261
26.	-13.9275
▁dí	-13.9283
▁Câ	-13.9284
olf	-13.9285
▁Ye	-13.9287
iang	-13.9295
hổ	-13.9309
▁Tim	-13.9331
hà	-13.9332
nlin	-13.9344
/57	-13.9352
▁CI	-13.9361
Tai	-13.9364
▁dan	-13.9368
NE	-13.9384
Cor	-13.9396
▁hoá	-13.9437
▁PT	-13.9442
rio	-13.9448
▁Sán	-13.9452
▁12.201	-13.9514
cụ	-13.9521
4.6	-13.9533
mit	-13.9548
▁21,	-13.9556
naya	-13.9558
,8	-13.9582
canh	-13.9586
8-1-201	-13.959
▁xú	-13.9609
urma	-13.9614
uz	-13.9629
nha	-13.9629
▁500.000-	-13.9635
▁Tá	-13.9647
ốm	-13.9649
9/9	-13.965
▁14.	-13.967
234	-13.9673
hiê	-13.9675
55,	-13.9679
43.	-13.9684
▁Rod	-13.9691
2-2018	-13.9707
ode	-13.9708
▁20/	-13.9726
dri	-13.9727
erid	-13.9742
▁LH	-13.9748
▁2.2.	-13.9749
▁Gill	-13.9763
ựng	-13.9775
▁ngợ	-13.9807
Vũ	-13.9813
▁6-201	-13.9816
▁trờ	-13.9818
.76	-13.9833
48/	-13.9835
▁179	-13.9843
.73	-13.985
▁6,7	-13.9866
amil	-13.9875
▁Cun	-13.9875
▁Cồ	-13.9887
735	-13.9896
2/1/2018	-13.9906
ịa	-13.9912
vụ	-13.9917
CSX	-13.9924
arra	-13.9929
▁HA	-13.9933
▁Alg	-13.9956
86,	-13.9958
▁5-	-13.9964
5).	-13.997
1/2017	-13.9973
ime	-13.9982
7,9	-13.9982
rườ	-13.9983
▁lùn	-13.9998
1/1	-13.9999
giọ	-14.0013
SMT	-14.0022
ũi	-14.0025
0-	-14.0046
low	-14.0061
▁luộ	-14.0068
▁Ur	-14.0081
sho	-14.0089
▁hì	-14.0094
7,7	-14.0102
▁Thán	-14.0111
▁1/1	-14.0129
ms	-14.0131
▁1.2.	-14.0141
tiền	-14.0174
▁Chun	-14.0224
rop	-14.0243
1.64	-14.025
▁6,8	-14.0253
▁Rin	-14.0257
▁tho	-14.026
.213	-14.0271
475	-14.0288
aco	-14.0294
▁trỗ	-14.0316
3.6	-14.033
ean	-14.0334
gent	-14.0354
46,	-14.0359
▁8-	-14.0361
▁Nă	-14.0385
dona	-14.0394
1.500	-14.0396
lý	-14.0417
▁tăn	-14.043
ngăn	-14.0432
istan	-14.0439
dụng	-14.0441
iao	-14.0451
▁Ngã	-14.0464
,43%	-14.0468
▁Cạn	-14.0476
shu	-14.0498
abu	-14.0506
/197	-14.0529
cet	-14.0539
Loạ	-14.0546
Mã	-14.056
1/2016	-14.0574
uk	-14.0581
▁gen	-14.0581
tư	-14.0601
▁Bloo	-14.0612
167	-14.063
,3%	-14.0636
NDT	-14.0695
▁KD	-14.0698
▁Eu	-14.0702
▁Mac	-14.0709
Vi	-14.0787
illi	-14.0792
▁9.201	-14.0799
12/2016	-14.0824
▁Trap	-14.0829
nal	-14.0833
94	-14.0834
issan	-14.0857
▁Bổ	-14.0873
Thố	-14.0874
▁Hot	-14.0883
88.	-14.0888
▁Ven	-14.0894
▁lẫ	-14.0906
.2015	-14.0911
4,8	-14.0928
▁Nô	-14.0932
esto	-14.094
huế	-14.0956
dit	-14.099
4.48	-14.102
▁07/2	-14.1054
▁Cổn	-14.1066
▁TK	-14.1084
▁Int	-14.1091
▁31.	-14.1099
ns	-14.1118
189	-14.1135
▁2015-20	-14.1148
29.6	-14.1188
▁Rea	-14.1196
xú	-14.1221
▁lự	-14.1236
.1.	-14.1241
00%	-14.1267
SAF	-14.1271
/10/19	-14.1367
rine	-14.1373
▁Gan	-14.1439
▁bệ	-14.1464
▁phẩ	-14.1508
hóa	-14.1526
lmas	-14.1527
hon	-14.1536
TGT	-14.1543
▁50,	-14.158
itter	-14.1601
7:	-14.1669
hả	-14.1687
Tiế	-14.1697
se	-14.1713
ayer	-14.1721
ngã	-14.1757
rack	-14.1762
erat	-14.1821
424	-14.1864
.2)	-14.1866
▁Độn	-14.1868
25/1	-14.1886
▁tướ	-14.1892
▁2011-201	-14.1928
mania	-14.1947
▁bô	-14.1964
idge	-14.2
ives	-14.2007
▁Ros	-14.2014
▁luy	-14.2021
.55	-14.208
Cấ	-14.2087
▁thò	-14.2088
▁46,	-14.2102
ado	-14.2122
▁Kan	-14.2136
▁Alv	-14.2167
▁Tê	-14.218
hop	-14.2196
ngột	-14.2214
.3	-14.2235
ool	-14.224
96/201	-14.2251
▁thó	-14.2254
ten	-14.2258
▁Bàng	-14.2273
7-2014	-14.2292
assa	-14.2302
▁Ky	-14.2337
ena	-14.2349
me	-14.235
rien	-14.2358
PCP	-14.2457
▁dẹ	-14.2472
elli	-14.2473
ysi	-14.248
ear	-14.258
27.4	-14.2606
24.6	-14.2648
▁6.12	-14.2663
▁phiế	-14.27
ku	-14.2708
gan	-14.2739
HX	-14.2741
▁Nổ	-14.2763
rước	-14.2785
íp	-14.2796
nistan	-14.2804
Ai	-14.2808
nghiệp	-14.2818
-12	-14.282
▁Dun	-14.283
143	-14.2833
Phá	-14.2876
▁ngoạ	-14.2927
Chá	-14.2929
iana	-14.3031
comb	-14.3058
▁hoản	-14.3115
▁Càn	-14.3128
▁đu	-14.3139
▁tó	-14.3187
36,8	-14.3197
▁167/20	-14.3211
100-	-14.3214
6/2016/	-14.3218
▁dầ	-14.3271
194	-14.3274
▁Yo	-14.3294
36.8	-14.3298
!)	-14.3304
trình	-14.3305
8/9/201	-14.3322
5-2	-14.3341
burg	-14.3355
174	-14.3396
hưng	-14.3403
ota	-14.3405
▁ơ	-14.3413
▁30/12/201	-14.3473
sha	-14.3535
▁cuố	-14.3621
▁u	-14.3646
ound	-14.3648
▁om	-14.3654
▁9.	-14.3666
▁lă	-14.3692
lde	-14.3763
mà	-14.3765
▁41,	-14.3785
▁98	-14.3795
lông	-14.3797
▁Mác	-14.3825
0/2015	-14.3876
22.	-14.3889
oát	-14.3896
wo	-14.3899
6.400	-14.3909
z	-14.8131
ẳ	-15.096
ẫ	-15.0961
ằ	-15.0962
ẩ	-15.0963
ắ	-15.0964
ầ	-15.0965
ậ	-15.0966
ấ	-15.0967
â	-15.0968
